{
  "version": "1.0",
  "truncation": null,
  "padding": null,
  "added_tokens": [
    {
      "id": 0,
      "content": "<bos>",
      "single_word": false,
      "lstrip": false,
      "rstrip": false,
      "normalized": false,
      "special": true
    },
    {
      "id": 1,
      "content": "<pad>",
      "single_word": false,
      "lstrip": false,
      "rstrip": false,
      "normalized": false,
      "special": true
    },
    {
      "id": 2,
      "content": "<eos>",
      "single_word": false,
      "lstrip": false,
      "rstrip": false,
      "normalized": false,
      "special": true
    },
    {
      "id": 3,
      "content": "<unk>",
      "single_word": false,
      "lstrip": false,
      "rstrip": false,
      "normalized": false,
      "special": true
    },
    {
      "id": 4,
      "content": "<en>",
      "single_word": false,
      "lstrip": false,
      "rstrip": false,
      "normalized": false,
      "special": true
    },
    {
      "id": 5,
      "content": "<hi>",
      "single_word": false,
      "lstrip": false,
      "rstrip": false,
      "normalized": false,
      "special": true
    }
  ],
  "normalizer": null,
  "pre_tokenizer": {
    "type": "ByteLevel",
    "add_prefix_space": false,
    "trim_offsets": true,
    "use_regex": true
  },
  "post_processor": null,
  "decoder": {
    "type": "ByteLevel",
    "add_prefix_space": true,
    "trim_offsets": true,
    "use_regex": true
  },
  "model": {
    "type": "BPE",
    "dropout": null,
    "unk_token": null,
    "continuing_subword_prefix": null,
    "end_of_word_suffix": null,
    "fuse_unk": false,
    "byte_fallback": false,
    "ignore_merges": false,
    "vocab": {
      "<bos>": 0,
      "<pad>": 1,
      "<eos>": 2,
      "<unk>": 3,
      "<en>": 4,
      "<hi>": 5,
      "!": 6,
      "\"": 7,
      "#": 8,
      "$": 9,
      "%": 10,
      "&": 11,
      "'": 12,
      "(": 13,
      ")": 14,
      "*": 15,
      "+": 16,
      ",": 17,
      "-": 18,
      ".": 19,
      "/": 20,
      "0": 21,
      "1": 22,
      "2": 23,
      "3": 24,
      "4": 25,
      "5": 26,
      "6": 27,
      "7": 28,
      "8": 29,
      "9": 30,
      ":": 31,
      ";": 32,
      "<": 33,
      "=": 34,
      ">": 35,
      "?": 36,
      "@": 37,
      "A": 38,
      "B": 39,
      "C": 40,
      "D": 41,
      "E": 42,
      "F": 43,
      "G": 44,
      "H": 45,
      "I": 46,
      "J": 47,
      "K": 48,
      "L": 49,
      "M": 50,
      "N": 51,
      "O": 52,
      "P": 53,
      "Q": 54,
      "R": 55,
      "S": 56,
      "T": 57,
      "U": 58,
      "V": 59,
      "W": 60,
      "X": 61,
      "Y": 62,
      "Z": 63,
      "[": 64,
      "\\": 65,
      "]": 66,
      "^": 67,
      "_": 68,
      "`": 69,
      "a": 70,
      "b": 71,
      "c": 72,
      "d": 73,
      "e": 74,
      "f": 75,
      "g": 76,
      "h": 77,
      "i": 78,
      "j": 79,
      "k": 80,
      "l": 81,
      "m": 82,
      "n": 83,
      "o": 84,
      "p": 85,
      "q": 86,
      "r": 87,
      "s": 88,
      "t": 89,
      "u": 90,
      "v": 91,
      "w": 92,
      "x": 93,
      "y": 94,
      "z": 95,
      "{": 96,
      "|": 97,
      "}": 98,
      "~": 99,
      "¡": 100,
      "¢": 101,
      "£": 102,
      "¤": 103,
      "¥": 104,
      "¦": 105,
      "§": 106,
      "¨": 107,
      "©": 108,
      "ª": 109,
      "«": 110,
      "¬": 111,
      "®": 112,
      "¯": 113,
      "°": 114,
      "±": 115,
      "²": 116,
      "³": 117,
      "´": 118,
      "µ": 119,
      "¶": 120,
      "·": 121,
      "¸": 122,
      "¹": 123,
      "º": 124,
      "»": 125,
      "¼": 126,
      "½": 127,
      "¾": 128,
      "¿": 129,
      "Â": 130,
      "Ã": 131,
      "Ä": 132,
      "Å": 133,
      "Æ": 134,
      "Ë": 135,
      "Î": 136,
      "Ï": 137,
      "Ð": 138,
      "Ñ": 139,
      "Ø": 140,
      "Ù": 141,
      "à": 142,
      "á": 143,
      "â": 144,
      "ã": 145,
      "ä": 146,
      "å": 147,
      "æ": 148,
      "ç": 149,
      "é": 150,
      "ï": 151,
      "Ċ": 152,
      "Ġ": 153,
      "Ģ": 154,
      "ģ": 155,
      "Ĥ": 156,
      "ĥ": 157,
      "Ħ": 158,
      "ħ": 159,
      "Ĩ": 160,
      "ĩ": 161,
      "Ī": 162,
      "ī": 163,
      "Ĭ": 164,
      "ĭ": 165,
      "Į": 166,
      "į": 167,
      "İ": 168,
      "ı": 169,
      "Ĳ": 170,
      "ĳ": 171,
      "Ĵ": 172,
      "ĵ": 173,
      "Ķ": 174,
      "ķ": 175,
      "ĸ": 176,
      "Ĺ": 177,
      "ĺ": 178,
      "Ļ": 179,
      "ļ": 180,
      "Ľ": 181,
      "ľ": 182,
      "Ŀ": 183,
      "ŀ": 184,
      "Ł": 185,
      "ł": 186,
      "Ń": 187,
      "à¤": 188,
      "Ġà¤": 189,
      "à¥": 190,
      "à¤¾": 191,
      "à¥ĩ": 192,
      "à¤°": 193,
      "Ġà¤ķ": 194,
      "à¥ĭ": 195,
      "à¥į": 196,
      "à¤¨": 197,
      "à¤¿": 198,
      "Ġt": 199,
      "à¥Ģ": 200,
      "à¤Ĥ": 201,
      "he": 202,
      "à¤¹": 203,
      "à¤¤": 204,
      "à¤ķ": 205,
      "Ġà¤¹": 206,
      "à¤®": 207,
      "à¤¸": 208,
      "à¥ģ": 209,
      "à¤²": 210,
      "Ġa": 211,
      "Ġthe": 212,
      "à¥Ī": 213,
      "à¤¯": 214,
      "Ġà¤¸": 215,
      "Ġw": 216,
      "in": 217,
      "re": 218,
      "Ġà¤¤": 219,
      "Ġà¤®": 220,
      "à¤Ĺ": 221,
      "ou": 222,
      "à¤¦": 223,
      "nd": 224,
      "à¥ĩà¤Ĥ": 225,
      "Ġs": 226,
      "Ġà¤ª": 227,
      "Ġà¤ľ": 228,
      "er": 229,
      "Ġo": 230,
      "ha": 231,
      "Ġà¤¨": 232,
      "Ġà¤ī": 233,
      "Ķà¤°": 234,
      "is": 235,
      "à¤ª": 236,
      "Ġà¤¬": 237,
      "Ġ(": 238,
      "ll": 239,
      "à¤¬": 240,
      "Ġb": 241,
      "Ġà¤²": 242,
      "or": 243,
      "Ġf": 244,
      "Ġà¤ħ": 245,
      "à¤µ": 246,
      "Ġà¤¦": 247,
      "on": 248,
      "Ġà¤Ķà¤°": 249,
      "à¥Ĥ": 250,
      "Ġà¤µ": 251,
      "en": 252,
      "Ġà¤ķà¤°": 253,
      "ed": 254,
      "es": 255,
      "it": 256,
      "à¤ı": 257,
      "Ġy": 258,
      "à¥ĭà¤Ĥ": 259,
      "Ġd": 260,
      "Ġand": 261,
      "Ġyou": 262,
      "Ġc": 263,
      "Ġà¤°": 264,
      "Ġto": 265,
      "Ġm": 266,
      "à¤¼": 267,
      "Ġof": 268,
      "Ġp": 269,
      "ing": 270,
      "Ġn": 271,
      "à¤¶": 272,
      "à¤ľ": 273,
      "ho": 274,
      "at": 275,
      "ar": 276,
      "à¤Ł": 277,
      "Ġbe": 278,
      "ve": 279,
      "le": 280,
      "Ġà¤īà¤¨": 281,
      "à¤ļ": 282,
      "Ġin": 283,
      "Ġà¤Ĩ": 284,
      "om": 285,
      "an": 286,
      "Ġà¤¯": 287,
      "ot": 288,
      "à¤ģ": 289,
      "Ġà¤īà¤¸": 290,
      "hat": 291,
      "à¥Īà¤Ĥ": 292,
      "à¤ĸ": 293,
      "Ġà¥": 294,
      "se": 295,
      "à¤¡": 296,
      "à¥¤": 297,
      "Ġis": 298,
      "ay": 299,
      "à¥Ģà¤Ĥ": 300,
      "Ġg": 301,
      "Ġha": 302,
      "ĠA": 303,
      "Ġà¤ļ": 304,
      "li": 305,
      "Ġà¤Ń": 306,
      "st": 307,
      "Ġà¤ªà¤°": 308,
      "Ġà¤¨à¤¹": 309,
      "Ġe": 310,
      "Ġà¤ĩ": 311,
      "ion": 312,
      "à¤«": 313,
      "Ġfor": 314,
      "Ġre": 315,
      "ow": 316,
      "Ġà¤¹à¤®": 317,
      "id": 318,
      "ill": 319,
      "Ġnot": 320,
      "ĠH": 321,
      "ver": 322,
      "Ġà¤Ĺ": 323,
      "hi": 324,
      "à¤Ī": 325,
      "Ġthey": 326,
      "Ġu": 327,
      "à¤Ľ": 328,
      "Ġthem": 329,
      "à¤ªà¤¨": 330,
      "Ġà¤«": 331,
      "ent": 332,
      "à¥Ľ": 333,
      "ut": 334,
      "Ġwho": 335,
      "Ġà¤µà¤¹": 336,
      "Ġhe": 337,
      "ly": 338,
      "ce": 339,
      "Ġthat": 340,
      "..": 341,
      "Ġà¤°à¤¹": 342,
      "ah": 343,
      "Ġà¤ĸ": 344,
      "Ġwill": 345,
      "od": 346,
      "Ġit": 347,
      "ir": 348,
      "ld": 349,
      "ĠAll": 350,
      "à¤Ķà¤°": 351,
      "Ġà¤ħà¤ªà¤¨": 352,
      "Ġà¤ı": 353,
      "Ġon": 354,
      "à¤·": 355,
      "ct": 356,
      "al": 357,
      "Ġth": 358,
      "Ġ\"": 359,
      "ĠW": 360,
      "gh": 361,
      "Ġà¤īà¤¨à¤ķ": 362,
      "à¤¥": 363,
      "ur": 364,
      "The": 365,
      "Ġà¤¥": 366,
      "ĠI": 367,
      "ĠAllah": 368,
      "ith": 369,
      "et": 370,
      "ri": 371,
      "Ġà¤ķà¤¹": 372,
      "à¤ħ": 373,
      "ad": 374,
      "as": 375,
      "Ġl": 376,
      "à¤§": 377,
      "Ġà¤īà¤¸à¤ķ": 378,
      "Ġà¤ıà¤ķ": 379,
      "Ġare": 380,
      "am": 381,
      "ch": 382,
      "à¤ĩ": 383,
      "à¤¾à¤ģ": 384,
      "Ġhave": 385,
      "Ġà¥Ļ": 386,
      "ess": 387,
      "rom": 388,
      "à¤Ń": 389,
      "Ġà¤ĩà¤¸": 390,
      "ĠM": 391,
      "ght": 392,
      "à¥Į": 393,
      "ro": 394,
      "Ġwith": 395,
      "Ġà¤¶": 396,
      "Ġdo": 397,
      "Ġk": 398,
      "ĠL": 399,
      "Ġà¤ħà¤²": 400,
      "Ġwe": 401,
      "Ġyour": 402,
      "if": 403,
      "âĢ": 404,
      "Ġà¤ķà¤°à¤¤": 405,
      "ĠS": 406,
      "à¤Ĩ": 407,
      "ĠG": 408,
      "il": 409,
      "Ġan": 410,
      "ord": 411,
      "Ġtheir": 412,
      "à¤°à¤¤": 413,
      "her": 414,
      "ĠHe": 415,
      "Ġfrom": 416,
      "à¤ł": 417,
      "ra": 418,
      "And": 419,
      "im": 420,
      "Ġse": 421,
      "ĠWe": 422,
      "ge": 423,
      "hose": 424,
      "à¤Ŀ": 425,
      "th": 426,
      "Ġh": 427,
      "à¤ķà¤°": 428,
      "Ġà¤¯à¤¹": 429,
      "lie": 430,
      "nt": 431,
      "à¥ľ": 432,
      "Ġà¤¡": 433,
      "op": 434,
      "à¥ĺ": 435,
      "Ġas": 436,
      "Ġà¤ķà¤°à¤¨": 437,
      "ation": 438,
      "à¤£": 439,
      "à¤ī": 440,
      "à¤¾,": 441,
      "à¥Ī,": 442,
      "Ġà¤¬à¤¨": 443,
      "Ġde": 444,
      "ain": 445,
      "ic": 446,
      "à¥Īà¥¤": 447,
      "hen": 448,
      "...": 449,
      "à¤¼à¤¾": 450,
      "Ġthose": 451,
      "ke": 452,
      "Ġsa": 453,
      "à¥ĩ)": 454,
      "ter": 455,
      "Ġsu": 456,
      "ould": 457,
      "Ġst": 458,
      "Ġhi": 459,
      "Ġà¤¸à¤ķ": 460,
      "Ġcom": 461,
      "ul": 462,
      "ĠLord": 463,
      "Ġwhat": 464,
      "Ġà¤ľà¤¬": 465,
      "à¤ĵ": 466,
      "now": 467,
      "à¤ªà¤°": 468,
      "ĠGod": 469,
      "ck": 470,
      "Ġme": 471,
      "ers": 472,
      "Ġà¤¸à¤®": 473,
      "Ġà¤ªà¤¹": 474,
      "Ġhim": 475,
      "est": 476,
      "Ġà¥Ľ": 477,
      "'s": 478,
      "ore": 479,
      "and": 480,
      "à¥Ī.": 481,
      "à¤µà¤°": 482,
      "Ġli": 483,
      "ment": 484,
      "ame": 485,
      "Ġsha": 486,
      "ĠT": 487,
      "Ġà¤¤à¤°": 488,
      "à¤Ĺà¤°": 489,
      "ate": 490,
      "ven": 491,
      "out": 492,
      "à¥ī": 493,
      "ĠP": 494,
      "ong": 495,
      "Ġthis": 496,
      "Ġall": 497,
      "Ġne": 498,
      "Ġor": 499,
      "Ġà¤°à¤ĸ": 500,
      "our": 501,
      "ind": 502,
      "Ġ%": 503,
      "ab": 504,
      "Ġtr": 505,
      "Ġwhi": 506,
      "Ġà¤Ĩà¤ª": 507,
      "ĠB": 508,
      "ĠD": 509,
      "Ġà¤Ī": 510,
      "pt": 511,
      "Ġhas": 512,
      "Ġthere": 513,
      "ard": 514,
      "Ġwhen": 515,
      "all": 516,
      "à¤¨à¤ķ": 517,
      "Ġknow": 518,
      "ĠC": 519,
      "Ġdis": 520,
      "Ġshall": 521,
      "à¥Ĥà¤ģ": 522,
      "Ġà¤Ľ": 523,
      "Ġbut": 524,
      "à¤¾)": 525,
      "Ġà¥ĺ": 526,
      "pe": 527,
      "Ġsaid": 528,
      "Ġà¤¹à¤®à¤¨": 529,
      "Ġex": 530,
      "Ġpro": 531,
      "à¤¹à¤¤": 532,
      "à¤¹à¤°": 533,
      "Ġà¤Ĳ": 534,
      "Ġgo": 535,
      "à¤¨à¤¤": 536,
      "à¤Ĳ": 537,
      "un": 538,
      "Ġbelie": 539,
      "ant": 540,
      "Ġà¤Īà¤®": 541,
      "Ġcon": 542,
      "Ġpe": 543,
      "Ġà¤¸à¤¬": 544,
      "ig": 545,
      "em": 546,
      "Ġà¤°à¤¸": 547,
      "à¥ĥ": 548,
      "Ġus": 549,
      "à¥ŀ": 550,
      "be": 551,
      "à¤¬à¤°": 552,
      "Ġ-": 553,
      "Ġup": 554,
      "ĠO": 555,
      "à¤®à¤¨": 556,
      "ople": 557,
      "à¤¾à¤Ĥ": 558,
      "ol": 559,
      "Ġà¤¸à¤ķà¤¤": 560,
      "Ġà¤Ĺà¤¯": 561,
      "us": 562,
      "à¤¾à¥¤": 563,
      "à¥Ģ)": 564,
      "ight": 565,
      "art": 566,
      "Ġhis": 567,
      "à¥ĭ,": 568,
      "ĠF": 569,
      "Ġà¤²à¤Ĺ": 570,
      "Ġwhich": 571,
      "Ġso": 572,
      "You": 573,
      "Ġ'": 574,
      "à¥ĩ,": 575,
      "ust": 576,
      "Ġif": 577,
      "Ġ(_": 578,
      "res": 579,
      "Ġà¤ħà¤¨": 580,
      "Ġpeople": 581,
      "Ġwas": 582,
      "à¤¸à¤®": 583,
      "pp": 584,
      "à¤°à¤ķ": 585,
      "os": 586,
      "red": 587,
      "Ġsay": 588,
      "han": 589,
      "Ġà¤ĺ": 590,
      "age": 591,
      "ive": 592,
      "ast": 593,
      "vers": 594,
      "ok": 595,
      "à¤¾.": 596,
      "ĠâĢ": 597,
      "à¤®à¤¤": 598,
      "Ġle": 599,
      "à¤¤à¤¨": 600,
      "à¤¸à¤ķ": 601,
      "Ġab": 602,
      "one": 603,
      "à¥Ļ": 604,
      "Ġ[": 605,
      "Ġby": 606,
      "Ġwor": 607,
      "Ġno": 608,
      "ves": 609,
      "Ġà¤¬à¤¹": 610,
      "ome": 611,
      "urn": 612,
      "ake": 613,
      "Ġà¤Ĳà¤¸": 614,
      "ist": 615,
      "à¤²à¤¤": 616,
      "Ġthen": 617,
      "à¤¯à¤¤": 618,
      "ect": 619,
      "He": 620,
      "ity": 621,
      "ĠThe": 622,
      "reat": 623,
      "à¤ıà¤Ĺ": 624,
      "Ġà¤§": 625,
      "Ġwere": 626,
      "Ġfa": 627,
      "eed": 628,
      "Ġmy": 629,
      "um": 630,
      "We": 631,
      "Ġà¤Ŀ": 632,
      "Ġear": 633,
      "qu": 634,
      "fore": 635,
      "à¤¸à¤°": 636,
      "Ġone": 637,
      "ous": 638,
      "ost": 639,
      "Ġman": 640,
      "Ġam": 641,
      "à¤¯à¤¹": 642,
      "ise": 643,
      "ure": 644,
      "ear": 645,
      "Ġv": 646,
      "Ġà¤ħà¤ļ": 647,
      "à¤¸à¤¨": 648,
      "Ġfo": 649,
      "Ġà¤¤à¤ķ": 650,
      "ther": 651,
      "à¤¹à¤®": 652,
      "Ġà¤°à¤¬": 653,
      "Ġcan": 654,
      "ag": 655,
      "ook": 656,
      "ings": 657,
      "à¤°à¤®": 658,
      "ak": 659,
      "Ġat": 660,
      "how": 661,
      "à¥ĩà¥¤": 662,
      "Ġri": 663,
      ".\"": 664,
      "ide": 665,
      "Ġj": 666,
      "Ġun": 667,
      "Ġgu": 668,
      "Ġà¤¬à¤¦": 669,
      "Ġà¤ĵ": 670,
      "ort": 671,
      "Ġà¤ªà¤¹à¤²": 672,
      "Ġ1": 673,
      "ĠHis": 674,
      "ever": 675,
      "Ġany": 676,
      "à¤¿à¤Ĥ": 677,
      "au": 678,
      "Ġà¤¹à¤°": 679,
      "own": 680,
      "à¤ĩà¤²": 681,
      "ĠR": 682,
      "ans": 683,
      "ign": 684,
      "à¥ģà¤ģ": 685,
      "à¤¶à¤¨": 686,
      "to": 687,
      "à¤µà¤¹": 688,
      "ish": 689,
      "Ġà¤ħà¤¤": 690,
      "rou": 691,
      "à¤ĥ": 692,
      "ĠE": 693,
      "Ġà¤¤à¤°à¤¹": 694,
      "ĠN": 695,
      "à¤¢": 696,
      "ave": 697,
      "sel": 698,
      "à¤¼à¤¿": 699,
      "Ġà¤ħà¤Ĺà¤°": 700,
      "ĠHim": 701,
      "'t": 702,
      "Ġpl": 703,
      "à¥ļ": 704,
      "à¤¤à¤°": 705,
      "à¤µà¤°à¤¦": 706,
      "ire": 707,
      "Ġà¤ĵà¤°": 708,
      "Ġà¤ªà¤°à¤µà¤°à¤¦": 709,
      "Ġhad": 710,
      "ack": 711,
      "Ġà¤ł": 712,
      "ful": 713,
      "belie": 714,
      "Ġbeen": 715,
      "Ġearth": 716,
      "Ġà¤¬à¤¸": 717,
      "Ġwould": 718,
      "Ġal": 719,
      "ance": 720,
      "Ġout": 721,
      "Ġmay": 722,
      "ĠAnd": 723,
      "fter": 724,
      "fe": 725,
      "Ġunt": 726,
      "ert": 727,
      "Ġye": 728,
      "Ġà¤Ł": 729,
      "ew": 730,
      "Ġsee": 731,
      "Ġgood": 732,
      "his": 733,
      "Ġright": 734,
      "à¤¼à¥Ģ": 735,
      "Ġà¤ļà¤²": 736,
      "very": 737,
      "uth": 738,
      "ove": 739,
      "Ġbelieve": 740,
      "Ġbefore": 741,
      "ving": 742,
      "cc": 743,
      "à¥Ģ,": 744,
      "ath": 745,
      "ue": 746,
      "Ġsh": 747,
      "à¤¼à¥ģ": 748,
      "ount": 749,
      "à¤ĩà¤¸": 750,
      "Ġà¤¬à¤¦à¤²": 751,
      "ved": 752,
      "ail": 753,
      "ade": 754,
      "à¥ĭà¥¤": 755,
      "à¤ŀ": 756,
      "Ġà¤¸à¤¹": 757,
      "Ġdown": 758,
      "Ġonly": 759,
      "so": 760,
      "à¥Ī?": 761,
      "à¤¦à¤°": 762,
      "ile": 763,
      "eng": 764,
      "ac": 765,
      "Ġupon": 766,
      "Ġà¤¯à¤¦": 767,
      "ud": 768,
      "Ġmess": 769,
      "âĢĿ": 770,
      "ĠU": 771,
      "we": 772,
      "Ġag": 773,
      "Ġr": 774,
      "Ġcome": 775,
      "able": 776,
      "Ġà¤ĩà¤¨": 777,
      "cept": 778,
      "à¤¼à¥ĩ": 779,
      "Ġday": 780,
      "are": 781,
      "Ġother": 782,
      "Ġdoes": 783,
      "They": 784,
      "Ġdid": 785,
      "way": 786,
      "Ġpr": 787,
      "Ġind": 788,
      "ase": 789,
      "à¥ĭ)": 790,
      "ace": 791,
      "Ġà¤¬à¥ľ": 792,
      "other": 793,
      "It": 794,
      "Ġad": 795,
      "Ġthou": 796,
      "Ġsure": 797,
      "Ġrem": 798,
      "à¤ļà¤¯": 799,
      "ction": 800,
      "ily": 801,
      "Ġwr": 802,
      "ff": 803,
      "lo": 804,
      "erc": 805,
      "ies": 806,
      "à¤²à¤¨": 807,
      "the": 808,
      "à¤¯à¤ķ": 809,
      "Ġwhom": 810,
      "à¥ĩà¤Ĥ)": 811,
      "Ġev": 812,
      "),": 813,
      "Ġsent": 814,
      "à¤¶à¤ķ": 815,
      "Ġà¤īà¤¨à¤¸": 816,
      "ward": 817,
      "Ġmade": 818,
      "Ġà¤¸à¤°": 819,
      "Ġbr": 820,
      "à¤Ĩà¤ª": 821,
      "Ġover": 822,
      "ress": 823,
      "el": 824,
      "Ġà¤ªà¤¤": 825,
      "Ġà¤Ĩà¤Ĺ": 826,
      "Ġen": 827,
      "ĠDay": 828,
      "Ġlike": 829,
      "ass": 830,
      "Ġname": 831,
      "ine": 832,
      "ause": 833,
      "Ġhea": 834,
      "Ġbet": 835,
      "Ġbec": 836,
      "à¤¯à¤¦": 837,
      "llow": 838,
      "Ġamong": 839,
      "Ġà¤īà¤¸à¤¨": 840,
      "Ġà¤Ĺà¤ı": 841,
      "à¤®à¤ķ": 842,
      "te": 843,
      "Ġthan": 844,
      "Ġturn": 845,
      "Ġagain": 846,
      "ry": 847,
      "for": 848,
      "Ġho": 849,
      "ĠâĢľ": 850,
      "of": 851,
      "here": 852,
      "à¤¡à¤°": 853,
      ").": 854,
      "Ġ2": 855,
      "Ġshould": 856,
      "Ġà¤Ĩà¤¦": 857,
      "ble": 858,
      "à¤¼à¥ĭ": 859,
      "Ġabout": 860,
      "ep": 861,
      "à¤®à¤¸": 862,
      "ject": 863,
      "Ġcomm": 864,
      "eth": 865,
      "Ġà¤¸à¤®à¤Ŀ": 866,
      "ness": 867,
      "Ġà¤¡à¤°": 868,
      "Ġdisbelie": 869,
      "ink": 870,
      "ime": 871,
      "à¤¸à¤²": 872,
      "Ġsome": 873,
      "Ġindeed": 874,
      "ted": 875,
      "Ġà¤ķà¤®": 876,
      "nder": 877,
      "Ġsign": 878,
      "lect": 879,
      "à¤¨à¤¨": 880,
      "Ġà¤¤à¤°à¤«": 881,
      "Ġheaven": 882,
      "ĠMess": 883,
      "ham": 884,
      "Ġà¤ħà¥Ľ": 885,
      "Ġà¤¬à¤°": 886,
      "pen": 887,
      "Ġour": 888,
      "Ġunto": 889,
      "ach": 890,
      "So": 891,
      "Ġà¤ĩà¤¸à¤ķ": 892,
      "Ġnor": 893,
      "Ġà¤īà¤¸à¤¸": 894,
      "Ġà¤ħà¤§": 895,
      "ĠJ": 896,
      "à¤īà¤¨": 897,
      "à¤ķà¤²": 898,
      "iven": 899,
      "ber": 900,
      "Ġà¤īà¤ª": 901,
      "Ġà¤¬à¤¡": 902,
      "nds": 903,
      "ĠK": 904,
      "Ġback": 905,
      "à¥Īà¤Ĥ.": 906,
      "Ġsp": 907,
      "Ġà¤ĩà¤¨à¤ķ": 908,
      "Ġà¤ħà¤µ": 909,
      "Ġtruth": 910,
      "This": 911,
      "à¥Ŀ": 912,
      "Ġevery": 913,
      "selves": 914,
      "à¤¯à¤¨": 915,
      "ĠOur": 916,
      "Ġrec": 917,
      "Ġafter": 918,
      "led": 919,
      "Ġà¤°à¤ĸà¤¤": 920,
      "Ġspe": 921,
      "00": 922,
      "hed": 923,
      "Ġà¤¦à¤°": 924,
      "à¤ľà¤¨": 925,
      "Ġlo": 926,
      "Ġar": 927,
      "Ġpun": 928,
      "ree": 929,
      "à¤ıà¤ķ": 930,
      "Ġaway": 931,
      "Ġà¤ķà¤¹à¤¤": 932,
      "Ġà¥Ľà¤®": 933,
      "à¤®à¤°": 934,
      "lation": 935,
      "Ġcall": 936,
      "Ġà¤īà¤¨à¤®": 937,
      "Ġsurely": 938,
      "Ġà¤ľà¤¹": 939,
      "Ġdes": 940,
      "à¤Łà¤°": 941,
      "Ġà¥ļ": 942,
      "hip": 943,
      "ite": 944,
      "ather": 945,
      "Ġà¥Ľà¤°": 946,
      "Ġim": 947,
      "Ġmake": 948,
      "Ġfear": 949,
      "oin": 950,
      "Ġneed": 951,
      "Ġcont": 952,
      "âĢĻ": 953,
      "Ġtrans": 954,
      "Ġbl": 955,
      "ice": 956,
      "ren": 957,
      "Ġper": 958,
      "Ġfollow": 959,
      "Ġcreat": 960,
      "What": 961,
      "à¤ļà¤¨": 962,
      "wn": 963,
      "Ġwant": 964,
      "Ġà¤ħà¤¬": 965,
      "But": 966,
      "pl": 967,
      "Ġgive": 968,
      "All": 969,
      "?\"": 970,
      "iz": 971,
      "Ġway": 972,
      "lp": 973,
      "Ġreve": 974,
      "à¤īà¤¸": 975,
      "Ġforg": 976,
      "Ġpunish": 977,
      "Ġser": 978,
      "à¤ħà¤ªà¤¨": 979,
      "Ġà¤īà¤ł": 980,
      "à¥ĩ.": 981,
      "à¤ĺ": 982,
      "Ġguid": 983,
      "Ġà¤¬à¤ļ": 984,
      "Ġmen": 985,
      "ĠV": 986,
      "Ġtw": 987,
      "Ġinto": 988,
      "No": 989,
      "Do": 990,
      "à¤°à¤£": 991,
      "ory": 992,
      "Ġret": 993,
      "ru": 994,
      "Ġtime": 995,
      "Ġà¤Ĩà¤¯": 996,
      "à¥Ģà¥¤": 997,
      "à¤ħà¤²": 998,
      "Ġagainst": 999,
      "ning": 1000,
      "Ġres": 1001,
      "à¤ĩà¤¨": 1002,
      "Ġà¤Ĩà¤ķ": 1003,
      "ci": 1004,
      "Ġà¤īà¤¤": 1005,
      "ĠYou": 1006,
      "Ġlife": 1007,
      "ound": 1008,
      "Ġheart": 1009,
      "Ġà¤ķà¤¹à¤¨": 1010,
      "urre": 1011,
      "Ġà¤§à¤°à¤¤": 1012,
      "Ġte": 1013,
      "Ġà¤¸à¤ļ": 1014,
      "ĠBook": 1015,
      "Ġà¤¯à¥ĺ": 1016,
      "Ġpre": 1017,
      "Ġà¤®à¤°": 1018,
      "à¤·à¤®": 1019,
      "Ġà¤¶à¤ĸ": 1020,
      "Ġwrong": 1021,
      "ĠMesseng": 1022,
      "Ġheavens": 1023,
      "In": 1024,
      "Ġà¤¸à¤®à¤¯": 1025,
      "Ġà¤īà¤¸à¤®": 1026,
      "Then": 1027,
      "Ġ...": 1028,
      "ef": 1029,
      "cre": 1030,
      "à¤¬à¤²": 1031,
      "Ġexcept": 1032,
      "à¥ĩà¤Ĥ.": 1033,
      "à¥Ĥà¤Ĥ": 1034,
      "Ġrep": 1035,
      "Ġevil": 1036,
      "xt": 1037,
      "Ġfile": 1038,
      "Ġask": 1039,
      ".âĢĿ": 1040,
      "Ġits": 1041,
      "à¤łà¤²": 1042,
      "Ġà¤¬à¤²": 1043,
      "à¤µà¤¨": 1044,
      "à¤°à¤¦": 1045,
      "Ġcomp": 1046,
      "Ġher": 1047,
      "à¤°à¤µ": 1048,
      "à¥Īà¥¤\"": 1049,
      "not": 1050,
      "à¤¾?": 1051,
      "cri": 1052,
      "ls": 1053,
      "ks": 1054,
      "Ġapp": 1055,
      "Ġdi": 1056,
      "If": 1057,
      "Ġacc": 1058,
      "lder": 1059,
      "ult": 1060,
      "Ġà¤Ĭ": 1061,
      "ndeed": 1062,
      "Ġpunishment": 1063,
      "Ġhere": 1064,
      "Ġà¤Ĩà¤¯à¤¤": 1065,
      "rop": 1066,
      "ions": 1067,
      "ror": 1068,
      "Ġà¤¶à¤ķ": 1069,
      "Ġtake": 1070,
      "à¤°à¤¹": 1071,
      "Ġwhere": 1072,
      "Ġset": 1073,
      "Ġpart": 1074,
      "Ġsin": 1075,
      "ary": 1076,
      "'re": 1077,
      "Ġà¤ĩà¤¸à¤®": 1078,
      "Ġthings": 1079,
      "ship": 1080,
      "ĠY": 1081,
      "Ġà¤Ĩà¤ªà¤ķ": 1082,
      "lear": 1083,
      "ated": 1084,
      "Ġà¤µà¤ķ": 1085,
      "ertain": 1086,
      "à¤¼à¥į": 1087,
      "Ġcha": 1088,
      "ence": 1089,
      "Ġà¤ħà¤ķ": 1090,
      "ally": 1091,
      "ages": 1092,
      "'m": 1093,
      "Ġà¤ªà¤¡": 1094,
      "Se": 1095,
      "ull": 1096,
      "Ġgiven": 1097,
      "ont": 1098,
      "Ġwar": 1099,
      "Ġco": 1100,
      "Ġcreated": 1101,
      "form": 1102,
      "Ġjust": 1103,
      "Ġworld": 1104,
      "Ġà¤Ńà¤²": 1105,
      "à¥Īà¤Ĥ,": 1106,
      "Ġnew": 1107,
      "Ġtwo": 1108,
      "ĠThey": 1109,
      "à¥ĭ!": 1110,
      "à¤°à¤¸": 1111,
      "Ġhelp": 1112,
      "à¤¿)": 1113,
      "Ġhow": 1114,
      "Ġget": 1115,
      "à¤ľà¤¬": 1116,
      "Ġke": 1117,
      "Ġden": 1118,
      "Ġlet": 1119,
      "Ġà¤®à¤¦": 1120,
      "Ġoff": 1121,
      "à¤ķà¤¤": 1122,
      "à¤°à¤¯": 1123,
      "Ġà¤Ńà¤°": 1124,
      "When": 1125,
      "Ġà¤Ĩà¤ı": 1126,
      "ub": 1127,
      "à¤Ĺà¤²": 1128,
      "ens": 1129,
      "à¤ķà¤¹": 1130,
      "ional": 1131,
      "Ġà¤Ĩà¤¦à¤®": 1132,
      "vi": 1133,
      "Ġcould": 1134,
      "à¥Ģà¤Ĥ,": 1135,
      "Ġra": 1136,
      "Say": 1137,
      "hy": 1138,
      "lease": 1139,
      "Ġà¤®à¤¹": 1140,
      "à¤Łà¤¨": 1141,
      "Ġà¤ĺà¤°": 1142,
      "gm": 1143,
      "read": 1144,
      "Ġà¥ŀ": 1145,
      "Ġdeed": 1146,
      "thing": 1147,
      "Ġà¤¬à¤¤": 1148,
      "Ġreturn": 1149,
      "Ġà¤Ĩà¤¸à¤®": 1150,
      "Ġkgm": 1151,
      "ĠBut": 1152,
      "Ġbelievers": 1153,
      "ne": 1154,
      "à¤¦à¤Ĺ": 1155,
      "Ġà¤Ĺà¤Ī": 1156,
      "ween": 1157,
      "ft": 1158,
      "ied": 1159,
      "Ġhearts": 1160,
      "Ġgreat": 1161,
      "Ġmost": 1162,
      "Ġsigns": 1163,
      "Ġshe": 1164,
      "Ġcame": 1165,
      "Ġfaith": 1166,
      "me": 1167,
      "rie": 1168,
      "str": 1169,
      "Ġcommand": 1170,
      "Ġwom": 1171,
      "Ġent": 1172,
      "Ġlist": 1173,
      "Ġmore": 1174,
      "iss": 1175,
      "à¥ģà¤Ĥ": 1176,
      "Ġthee": 1177,
      "à¤ħà¤¤": 1178,
      "à¤ªà¤¸": 1179,
      "):": 1180,
      "à¥Ģ.": 1181,
      "Ġbetween": 1182,
      "Ġfind": 1183,
      "ec": 1184,
      "het": 1185,
      "Ġcl": 1186,
      "Ġwhile": 1187,
      "à¥ĭ.": 1188,
      "Ġmessage": 1189,
      "Ġ_": 1190,
      "That": 1191,
      "à¤¯à¤®": 1192,
      "og": 1193,
      "ap": 1194,
      "hamm": 1195,
      "ale": 1196,
      "Ġhat": 1197,
      "There": 1198,
      "Ġà¤®à¤Ĺà¤°": 1199,
      "à¥Īà¤Ĥ?": 1200,
      "Ġcertain": 1201,
      "à¤¸à¤¬": 1202,
      "Ġbest": 1203,
      "Ġnever": 1204,
      "à¤ĸà¤¤": 1205,
      "self": 1206,
      "Ġgr": 1207,
      "Ġclear": 1208,
      "oses": 1209,
      "Ġshow": 1210,
      "iful": 1211,
      "ug": 1212,
      "ĠWho": 1213,
      "Ġused": 1214,
      "ater": 1215,
      "ia": 1216,
      "Ġbecause": 1217,
      "oc": 1218,
      "à¤µà¤²": 1219,
      "ons": 1220,
      "ĠIs": 1221,
      "Ġdeeds": 1222,
      "à¤¬à¤¤": 1223,
      "Ġver": 1224,
      "Ġeven": 1225,
      "à¥ĭà¤Ĥ)": 1226,
      "tle": 1227,
      "Ġthemselves": 1228,
      "Ġunder": 1229,
      "act": 1230,
      "ces": 1231,
      "Ġà¤¸à¤¤": 1232,
      "As": 1233,
      "ĠMessenger": 1234,
      "opt": 1235,
      "Ġhar": 1236,
      "ient": 1237,
      "ors": 1238,
      "Ġprom": 1239,
      "ĠâĢĵ": 1240,
      "ercy": 1241,
      "Ġà¤Ĩà¤ľ": 1242,
      "den": 1243,
      "à¤¦à¤¨": 1244,
      "Ġà¤ħà¤Ń": 1245,
      "à¤¾/": 1246,
      "à¤°à¤Ń": 1247,
      "à¤¨à¤¹": 1248,
      "ledge": 1249,
      "à¤Łà¤ķ": 1250,
      "Ġbring": 1251,
      "Ġqu": 1252,
      "ations": 1253,
      "ower": 1254,
      "à¤ªà¤¤": 1255,
      "Ġà¤ķà¤Ń": 1256,
      "oth": 1257,
      "à¥Ī)": 1258,
      "à¤ķà¤¡": 1259,
      "Ġà¤Ķ": 1260,
      "Ġà¤¦à¤¯": 1261,
      "Ġreward": 1262,
      "hild": 1263,
      "les": 1264,
      "à¥Ģ-": 1265,
      "Ġà¤®à¤¨": 1266,
      "Ġsc": 1267,
      "erm": 1268,
      "Ġpray": 1269,
      "à¥ĩ?": 1270,
      "Ġown": 1271,
      "ised": 1272,
      "ali": 1273,
      "Ġadd": 1274,
      "à¤°à¤¨": 1275,
      "Ġchan": 1276,
      "ose": 1277,
      "Ġworship": 1278,
      "optional": 1279,
      "à¤ªà¤¯": 1280,
      "get": 1281,
      "Ġsou": 1282,
      "St": 1283,
      "à¤ĸà¤¨": 1284,
      "à¤Ĺà¤¤": 1285,
      "ting": 1286,
      "Ġanother": 1287,
      "Ġreveal": 1288,
      "ĠMy": 1289,
      "à¥Īà¤Ĥà¥¤": 1290,
      "ĠSo": 1291,
      "per": 1292,
      "Ġknowledge": 1293,
      "ably": 1294,
      "hammad": 1295,
      "mit": 1296,
      "uhammad": 1297,
      "à¤¦à¤¤": 1298,
      "cl": 1299,
      "Ġdon": 1300,
      "Ġnight": 1301,
      "lic": 1302,
      "Ġprov": 1303,
      "iving": 1304,
      "à¥ĺà¤°": 1305,
      "ĠQ": 1306,
      "à¤¨à¤¦": 1307,
      "ark": 1308,
      "à¤īà¤¸à¤ķ": 1309,
      "Ġknows": 1310,
      "Ġthese": 1311,
      "Ġà¤¶à¤°": 1312,
      "à¥ĩà¤Ĥ,": 1313,
      "Ġdest": 1314,
      "à¤¨à¤µ": 1315,
      "à¤ķà¤Ł": 1316,
      "Ġà¤īà¤¨à¤ªà¤°": 1317,
      "Ġà¤°à¤¹à¤¨": 1318,
      "Ġthink": 1319,
      "ither": 1320,
      "Ġà¤łà¤¹à¤°": 1321,
      "Ġap": 1322,
      "ode": 1323,
      "Ġmight": 1324,
      "Ġpass": 1325,
      "'ll": 1326,
      "Ġ'%": 1327,
      "ives": 1328,
      "IN": 1329,
      "Ġfe": 1330,
      "Ġà¤¢": 1331,
      "Ġcre": 1332,
      "à¤²à¤¬": 1333,
      "Ġà¤ªà¥ľ": 1334,
      "ĠâĢĺ": 1335,
      "eous": 1336,
      "à¤«à¤²": 1337,
      "Name": 1338,
      "ants": 1339,
      "less": 1340,
      "ific": 1341,
      "Ġtranslation": 1342,
      "Allah": 1343,
      "ian": 1344,
      "ify": 1345,
      "à¤¤à¤®": 1346,
      "ember": 1347,
      "Ġà¤²à¤Ĺà¤¤": 1348,
      "urely": 1349,
      "à¤īà¤¨à¤ķ": 1350,
      "Ġhath": 1351,
      "Ġà¤ľà¤¹à¤¨": 1352,
      "ĠFor": 1353,
      "dd": 1354,
      "iles": 1355,
      "up": 1356,
      "do": 1357,
      "Ġà¤ľà¤Ĺ": 1358,
      "Ġà¤ķà¤°à¤ķ": 1359,
      "à¤ĵà¤Ĺ": 1360,
      "Ġob": 1361,
      "à¥ļà¤®": 1362,
      "Ġnow": 1363,
      "erciful": 1364,
      "Ġbo": 1365,
      "Ġer": 1366,
      "Ġà¤¬à¤¢": 1367,
      "Ġmercy": 1368,
      "Ġprob": 1369,
      "à¤µà¤¤": 1370,
      "Ġà¤¹à¤Ł": 1371,
      "Ġà¤Ĩà¤¤": 1372,
      "Ġfir": 1373,
      "ple": 1374,
      "Those": 1375,
      "uch": 1376,
      "ĠTh": 1377,
      "Ġà¤ħà¤¸": 1378,
      "Ġprobably": 1379,
      "erily": 1380,
      "rophet": 1381,
      "Ġà¤®à¤¤": 1382,
      "aw": 1383,
      "indow": 1384,
      "Ġfolder": 1385,
      "à¥ĩ-": 1386,
      "ition": 1387,
      "Ġsub": 1388,
      "Ġselect": 1389,
      "à¤ķà¤¨": 1390,
      "à¥Ľà¤°": 1391,
      "after": 1392,
      "Ġcertainly": 1393,
      "Ġland": 1394,
      "Ġà¤ľà¤Ĺà¤¹": 1395,
      "ait": 1396,
      "oss": 1397,
      "ty": 1398,
      "soever": 1399,
      "hing": 1400,
      "ution": 1401,
      "hes": 1402,
      "Show": 1403,
      "Ġbetter": 1404,
      "Ġverily": 1405,
      "itness": 1406,
      "ick": 1407,
      "Ġbel": 1408,
      "Ġsupp": 1409,
      "Ġforth": 1410,
      "à¥ĭ?": 1411,
      "à¤Ķ": 1412,
      "Ġà¤ľà¤²": 1413,
      "à¤¬à¤¹": 1414,
      "Ġwell": 1415,
      "!\"": 1416,
      "à¤¬à¤¨": 1417,
      "Ġopen": 1418,
      "Ġfather": 1419,
      "ption": 1420,
      "Ġà¤Ĺà¤µ": 1421,
      "Ġord": 1422,
      "City": 1423,
      "Ġinv": 1424,
      "à¤²à¤Ĺ": 1425,
      "à¤¹à¤²": 1426,
      "Ġà¤ĳ": 1427,
      "Ġsend": 1428,
      "à¤Ĭ": 1429,
      "à¥¤\"": 1430,
      "Ġà¤Ĭà¤ªà¤°": 1431,
      "à¥ĩà¥¤\"": 1432,
      "Who": 1433,
      "à¤¤à¤µ": 1434,
      "Ġà¤°à¤ĸà¤¨": 1435,
      "Ġwomen": 1436,
      "Ġrighteous": 1437,
      "ars": 1438,
      "ĠIn": 1439,
      "Ġtherein": 1440,
      "Ġà¤¨à¤®": 1441,
      "rought": 1442,
      "Ġà¤īà¤ªà¤¯": 1443,
      "Ġà¤µà¤°": 1444,
      "à¤ľà¤¹": 1445,
      "Ġsuch": 1446,
      "For": 1447,
      "Ġwarn": 1448,
      "Can": 1449,
      "Ġuntil": 1450,
      "à¤¼à¥ĩà¤Ĥ": 1451,
      "Ġgod": 1452,
      "ener": 1453,
      "Ġà¤ľà¤¬à¤ķ": 1454,
      "Ġac": 1455,
      "à¤®à¤²": 1456,
      "Ġever": 1457,
      "lig": 1458,
      "Ġthy": 1459,
      "hether": 1460,
      "mer": 1461,
      "ious": 1462,
      "Ġfl": 1463,
      "Ġrevealed": 1464,
      "Ġange": 1465,
      "ĠNo": 1466,
      "Ġà¤Ĩà¤¨": 1467,
      "Ġà¤°à¤¹à¤¤": 1468,
      "Ġ3": 1469,
      "port": 1470,
      "à¤īà¤¸à¤¨": 1471,
      "Ġro": 1472,
      "bra": 1473,
      "à¤ħà¤¬": 1474,
      "ang": 1475,
      "bey": 1476,
      "Ġwitness": 1477,
      "Ġlook": 1478,
      "à¤°à¥Ľ": 1479,
      "à¤ħà¤¨": 1480,
      "Ġhum": 1481,
      "Ġbrought": 1482,
      "Ġà¤ĩà¤¸à¤¸": 1483,
      "Ġà¤¨à¤¸": 1484,
      "Ġsl": 1485,
      "à¤°à¤¬": 1486,
      "Ġgot": 1487,
      "à¤¸à¤¤": 1488,
      "à¤²à¤Ł": 1489,
      "Ġatt": 1490,
      "Ġplace": 1491,
      "Ġerror": 1492,
      "round": 1493,
      "ĠUs": 1494,
      "ates": 1495,
      "ĠProphet": 1496,
      "Ġà¤®à¤¦à¤¦": 1497,
      "ĠIf": 1498,
      "Ġact": 1499,
      "à¤®à¤®": 1500,
      "Ġconf": 1501,
      "iew": 1502,
      "ob": 1503,
      "aught": 1504,
      "Ġwork": 1505,
      "Ġtor": 1506,
      "ie": 1507,
      "Ġ\"%": 1508,
      "hildren": 1509,
      "Ġgave": 1510,
      "Ġend": 1511,
      "Ġguidance": 1512,
      "Ġà¤ĩà¤¸à¤²": 1513,
      "Ġ.": 1514,
      "Ġpo": 1515,
      "Ġmany": 1516,
      "Ġà¤Ķà¤°à¤¤": 1517,
      "Indeed": 1518,
      "Ġleave": 1519,
      "Un": 1520,
      "à¤¨à¤®": 1521,
      "Ġà¤ªà¤¸": 1522,
      "Com": 1523,
      "Ġsave": 1524,
      ":%": 1525,
      "believers": 1526,
      "ides": 1527,
      "Ġà¤ªà¤¶": 1528,
      "Ġothers": 1529,
      "Ġnothing": 1530,
      "ĠQur": 1531,
      "Ġfound": 1532,
      "Ġgra": 1533,
      "Ġeach": 1534,
      "Ġà¤¹à¥ĺ": 1535,
      "Ġà¤«à¤°à¤®": 1536,
      "Ġà¤ħà¤ª": 1537,
      "Ġà¤ľà¤®": 1538,
      "ize": 1539,
      "na": 1540,
      "gr": 1541,
      "Ġà¤²à¤¡": 1542,
      "ms": 1543,
      "ute": 1544,
      "à¤·à¤¯": 1545,
      "ĠIt": 1546,
      "My": 1547,
      "Ġem": 1548,
      "Ġcause": 1549,
      "Ġpres": 1550,
      "Ġdeny": 1551,
      "Ġà¤¸à¤¦": 1552,
      "Ġdr": 1553,
      "ains": 1554,
      "Ġdev": 1555,
      "Ġkeep": 1556,
      "-#": 1557,
      "ip": 1558,
      "Ġword": 1559,
      "ĠSay": 1560,
      "Ġà¤¸à¤¬à¤¸": 1561,
      "atter": 1562,
      "Ġà¤¬à¤¯": 1563,
      "lete": 1564,
      "à¤®à¤ªà¤°": 1565,
      "Ġaff": 1566,
      "urrent": 1567,
      "Ġwater": 1568,
      "stand": 1569,
      "ished": 1570,
      "Ġbelong": 1571,
      "Ġà¤¸à¤¨": 1572,
      "On": 1573,
      "Ġappoin": 1574,
      "irect": 1575,
      "Ġsw": 1576,
      "kind": 1577,
      "ĠMoses": 1578,
      "Ġfav": 1579,
      "Could": 1580,
      "Ġ--": 1581,
      "ents": 1582,
      "Ġmo": 1583,
      "ĠMost": 1584,
      "Ġà¤ĩà¤¬": 1585,
      "à¤¯à¤°": 1586,
      "à¤¹à¤®à¤¨": 1587,
      ".'": 1588,
      "ced": 1589,
      "Ġwithout": 1590,
      "av": 1591,
      "à¤¾!": 1592,
      "Ġpath": 1593,
      "Ġseek": 1594,
      "Ġtri": 1595,
      "Ġselected": 1596,
      "Ġpower": 1597,
      "oh": 1598,
      "Ġtak": 1599,
      "Ġà¤¸à¤¬à¤ķ": 1600,
      "Ġserv": 1601,
      "Ġcannot": 1602,
      "Ġdisbelieve": 1603,
      "just": 1604,
      "How": 1605,
      "à¤¾:": 1606,
      "Ġuse": 1607,
      "Ġaccount": 1608,
      "ring": 1609,
      "Ġgoing": 1610,
      "ond": 1611,
      "Ġangels": 1612,
      "Ġtorment": 1613,
      "ument": 1614,
      "ĠDo": 1615,
      "ĠThis": 1616,
      "à¤°à¤Ķ": 1617,
      "ĠFire": 1618,
      "Ġà¤¬à¥Ŀ": 1619,
      "Ġ&": 1620,
      "Ġà¤¸à¤ľ": 1621,
      "à¤ªà¤·": 1622,
      "Ġrest": 1623,
      "à¤°à¤Ķà¤¨": 1624,
      "Ġdisc": 1625,
      "To": 1626,
      "Ġà¤¬à¤ĸ": 1627,
      "Ġput": 1628,
      "à¤ķà¤°à¤£": 1629,
      "Ġà¤Ĩà¤°": 1630,
      "heck": 1631,
      "à¤ħà¤ļ": 1632,
      "Ġbrother": 1633,
      "Go": 1634,
      "Ġtell": 1635,
      "'ve": 1636,
      "Ġà¤Ĩà¤µ": 1637,
      "ix": 1638,
      "Ġà¤¸à¤ĸ": 1639,
      "Ġref": 1640,
      "row": 1641,
      "Ġtrue": 1642,
      "Ġkill": 1643,
      "à¤µà¤¯": 1644,
      "ware": 1645,
      "Ġà¤¤à¤¬": 1646,
      "Is": 1647,
      "Ġ/": 1648,
      "Ġà¤Ĩà¥Ļ": 1649,
      "Ġass": 1650,
      "its": 1651,
      "alk": 1652,
      "Ġunderstand": 1653,
      "als": 1654,
      "à¥Ĥà¤ģ.": 1655,
      "ĠMerciful": 1656,
      "rough": 1657,
      "Ġmesseng": 1658,
      "Ġà¤²à¥ľ": 1659,
      "Ġbeing": 1660,
      "roup": 1661,
      "umber": 1662,
      "Ġson": 1663,
      "ĠMe": 1664,
      "Ġgl": 1665,
      "Ġastr": 1666,
      "Ġà¤ıà¤¹": 1667,
      "Ġinform": 1668,
      "Ġins": 1669,
      "Be": 1670,
      "Ġsec": 1671,
      "Ġtoward": 1672,
      "God": 1673,
      "Re": 1674,
      "Ġà¤¸à¤Ń": 1675,
      "Ġastray": 1676,
      "ĠIndeed": 1677,
      "Ġwhatever": 1678,
      "Ġlove": 1679,
      "Ġdif": 1680,
      "à¤¼à¥Į": 1681,
      "air": 1682,
      "Ġmessages": 1683,
      "Ġfore": 1684,
      "bo": 1685,
      "roy": 1686,
      "Add": 1687,
      "Ġà¤¸à¤°à¤ķ": 1688,
      "Ġdeath": 1689,
      "Ġdou": 1690,
      "Ġbes": 1691,
      "olor": 1692,
      "De": 1693,
      "Ġà¤®à¥Ľ": 1694,
      "Ġrece": 1695,
      "],": 1696,
      "ĠThen": 1697,
      "Ġhear": 1698,
      "Ġpat": 1699,
      "à¤¾à¤ģ,": 1700,
      "ited": 1701,
      "ĠTr": 1702,
      "pect": 1703,
      "giving": 1704,
      "Ġkind": 1705,
      "à¥Ī!": 1706,
      "leas": 1707,
      "Ġfull": 1708,
      "Ġread": 1709,
      "Ġà¤¹à¤²": 1710,
      "Ġdisbelievers": 1711,
      "Ġyear": 1712,
      "Ġjud": 1713,
      "à¤¾-": 1714,
      "Ġmust": 1715,
      "Ġwhose": 1716,
      "Ġà¤¡à¤°à¤¤": 1717,
      "Ġrevelation": 1718,
      "Ġà¤ľà¤°": 1719,
      "ĠRes": 1720,
      "Ġà¤¸à¤®à¤Ŀà¤¤": 1721,
      "ision": 1722,
      "à¤ıà¤¸": 1723,
      "Ġspeak": 1724,
      "ING": 1725,
      "Ġlight": 1726,
      "ible": 1727,
      "ĠHere": 1728,
      "AN": 1729,
      "Ġà¤īà¤®": 1730,
      "Ġà¤ĩà¤¬à¤°": 1731,
      "Ġnone": 1732,
      "ĠMuhammad": 1733,
      "Ġca": 1734,
      "cer": 1735,
      "Ġtra": 1736,
      "à¤¸à¤Ń": 1737,
      "à¤·à¤ķ": 1738,
      "à¤°à¤¶": 1739,
      "Ġbecome": 1740,
      "Ġdestroy": 1741,
      "uck": 1742,
      "Ġtoo": 1743,
      "à¤Ľà¤²": 1744,
      "ype": 1745,
      "ouse": 1746,
      "Select": 1747,
      "doers": 1748,
      "Ġav": 1749,
      "à¤ıà¤²": 1750,
      "Ġà¤Ĩà¤ĸ": 1751,
      "ready": 1752,
      "Ġunbelievers": 1753,
      "ĠSt": 1754,
      "Ġsk": 1755,
      "ittle": 1756,
      "à¥Ģà¤Ĥ)": 1757,
      "Ġthrough": 1758,
      "day": 1759,
      "Rem": 1760,
      "An": 1761,
      "Ġfire": 1762,
      "aste": 1763,
      "--": 1764,
      "Ġà¤ħà¤°": 1765,
      "Ġreg": 1766,
      "à¤¹à¤°à¤¬": 1767,
      "Ġenter": 1768,
      "vel": 1769,
      "Ġfirst": 1770,
      "opy": 1771,
      "à¤¹à¤¤à¤°": 1772,
      "à¤¾à¥¤\"": 1773,
      "Ġhands": 1774,
      "Ġfiles": 1775,
      "AR": 1776,
      "à¥Ģà¤Ĥà¥¤": 1777,
      "Ġmankind": 1778,
      "Ġwindow": 1779,
      "Ġey": 1780,
      "atch": 1781,
      "à¤¨à¤¯": 1782,
      "Ġremember": 1783,
      "Ex": 1784,
      "Ġleft": 1785,
      "urrection": 1786,
      "Ġinter": 1787,
      "Ġwhoever": 1788,
      "Ġà¤«à¤°": 1789,
      "Ġchast": 1790,
      "hara": 1791,
      "Ġreject": 1792,
      "Ġdec": 1793,
      "à¤ķà¤®": 1794,
      "play": 1795,
      "Ġinst": 1796,
      "ided": 1797,
      "Ġturned": 1798,
      "ardens": 1799,
      "idden": 1800,
      "Ġbelieved": 1801,
      "à¤¼à¥Ī": 1802,
      "hold": 1803,
      "rit": 1804,
      "otect": 1805,
      "à¤¦à¤®": 1806,
      "à¤ħà¤°": 1807,
      "à¥ĭà¥¤\"": 1808,
      "Ġcar": 1809,
      "Cannot": 1810,
      "ified": 1811,
      ".âĢĻ": 1812,
      "Ġdone": 1813,
      "ĠHereafter": 1814,
      "Ġvers": 1815,
      "ometh": 1816,
      "Ġà¤ªà¤¢": 1817,
      "Ġalready": 1818,
      "Ġdef": 1819,
      "cript": 1820,
      "by": 1821,
      "ica": 1822,
      "Ġalso": 1823,
      "Ġsoul": 1824,
      "à¤µà¤¸": 1825,
      "Ġà¤ľà¤¨": 1826,
      "Ġà¤Ľà¤µ": 1827,
      "Ġcons": 1828,
      "Ġyet": 1829,
      "ins": 1830,
      "Ġrelig": 1831,
      "com": 1832,
      "ts": 1833,
      "ask": 1834,
      "ating": 1835,
      "Ġà¥ĺà¤¯": 1836,
      "ser": 1837,
      "à¤¬à¤°à¤¦": 1838,
      "Ġinf": 1839,
      "Or": 1840,
      "nect": 1841,
      "ared": 1842,
      "ered": 1843,
      "Ġà¤¤à¤¥": 1844,
      "Ġà¤ªà¥Ŀ": 1845,
      "gether": 1846,
      "ell": 1847,
      "Ġthing": 1848,
      "Ġcho": 1849,
      "ata": 1850,
      "cess": 1851,
      "word": 1852,
      "Ġimage": 1853,
      "Ġlittle": 1854,
      "soci": 1855,
      "Ġones": 1856,
      "Ġdead": 1857,
      "Ġresp": 1858,
      "Ġyourselves": 1859,
      "Ġà¤®à¤ľ": 1860,
      "Ġà¤¤à¤°à¥ŀ": 1861,
      "Ġà¤¹à¤ķ": 1862,
      "Ġpleas": 1863,
      "Ġneither": 1864,
      "Ġaccept": 1865,
      "Ġprop": 1866,
      "âĢĶ": 1867,
      "omething": 1868,
      "Ġbre": 1869,
      "à¤®à¤Ĺà¤°": 1870,
      "Ġà¤ļà¤²à¤¤": 1871,
      "Ġstr": 1872,
      "ined": 1873,
      "à¤¼à¥ī": 1874,
      "Ġrequ": 1875,
      "à¤¤à¤¬": 1876,
      "Are": 1877,
      "Ġà¤¸à¤µ": 1878,
      "à¤ħà¤®": 1879,
      "gress": 1880,
      "Ġanything": 1881,
      "olution": 1882,
      "-#-#": 1883,
      "Ġthough": 1884,
      "Ġà¤¸à¤°à¤ķà¤¶": 1885,
      "Ġmis": 1886,
      "nowing": 1887,
      "Ġeverything": 1888,
      "Ġguided": 1889,
      "Ġà¤ªà¤ķ": 1890,
      "ault": 1891,
      "Ġcurrent": 1892,
      "Ġbless": 1893,
      "Ġhand": 1894,
      "\\\\": 1895,
      "à¤°à¤Ĺ": 1896,
      "Please": 1897,
      "Ġlong": 1898,
      "à¤§à¤¨": 1899,
      "à¤°à¤°": 1900,
      "Ġpur": 1901,
      "Ġmuch": 1902,
      "ric": 1903,
      "Ġpromise": 1904,
      "à¥ĺà¤¯": 1905,
      "Ġtest": 1906,
      "Ġserver": 1907,
      "ph": 1908,
      "à¤¥à¤¨": 1909,
      "tc": 1910,
      "nter": 1911,
      "ead": 1912,
      "Ġdoub": 1913,
      "ĠHell": 1914,
      "à¤®à¤¦": 1915,
      "Ġobey": 1916,
      "Ġtrust": 1917,
      "Con": 1918,
      "ged": 1919,
      "oy": 1920,
      "alend": 1921,
      "Ġsupport": 1922,
      "haraoh": 1923,
      "ract": 1924,
      "Ġstand": 1925,
      "hind": 1926,
      "Ġà¤¤à¤¤": 1927,
      "ĠSe": 1928,
      "man": 1929,
      "Ġboth": 1930,
      "Ġà¤ĩà¤²": 1931,
      "ild": 1932,
      "à¤µà¤ķ": 1933,
      "Ġwait": 1934,
      "alth": 1935,
      "Ġstart": 1936,
      "Dis": 1937,
      "Ġà¤ħà¤¦": 1938,
      "Ġben": 1939,
      "ned": 1940,
      "rib": 1941,
      "ighty": 1942,
      "Ġà¤Ŀà¤Ĺ": 1943,
      "alid": 1944,
      "Ġreligion": 1945,
      "Ġà¤µà¤ľà¤¹": 1946,
      "ĠResurrection": 1947,
      "à¤ħà¤Ĺà¤°": 1948,
      "well": 1949,
      "Ġdist": 1950,
      "Ġcor": 1951,
      "Ġmatter": 1952,
      "Ġassoci": 1953,
      "Ġorder": 1954,
      "Ġà¤¸à¥Ľ": 1955,
      "Ġbehind": 1956,
      "Have": 1957,
      "Ġmak": 1958,
      "Ġmail": 1959,
      "Ġà¤ľà¤µ": 1960,
      "Ġprayer": 1961,
      "Ġmeet": 1962,
      "à¤ªà¤Ł": 1963,
      "\".": 1964,
      "owed": 1965,
      "Al": 1966,
      "Ġfrie": 1967,
      "Ġà¤¬à¤°à¤¸": 1968,
      "Ġà¤¸à¤®à¤°": 1969,
      "Ġtogether": 1970,
      "ĠThat": 1971,
      "Ġcreate": 1972,
      "Ġfight": 1973,
      "kay": 1974,
      "ists": 1975,
      "ired": 1976,
      "à¤·à¤°": 1977,
      "ges": 1978,
      "ĠAs": 1979,
      "Th": 1980,
      "ures": 1981,
      "à¤¤à¤¤": 1982,
      "Ġmon": 1983,
      "Ġà¥ĺà¤°": 1984,
      "Ġforgiven": 1985,
      "à¤Ĩà¤Ī": 1986,
      "Ġvery": 1987,
      "à¤ľà¤¤": 1988,
      "Ġsuff": 1989,
      "à¤²à¤ķ": 1990,
      "alse": 1991,
      "br": 1992,
      "miss": 1993,
      "with": 1994,
      "AP": 1995,
      "ners": 1996,
      "Ġ(%": 1997,
      "atan": 1998,
      "Ġmar": 1999,
      "Ġdet": 2000,
      "ĠTo": 2001,
      "Ġhapp": 2002,
      "Ġsomething": 2003,
      "ĠEx": 2004,
      "ax": 2005,
      "Ġbook": 2006,
      "Ġeat": 2007,
      "Ġhead": 2008,
      "Ġguard": 2009,
      "à¤°à¤¦à¤°": 2010,
      "gin": 2011,
      "Ġdeli": 2012,
      "Ġequ": 2013,
      "ccess": 2014,
      "à¤¶à¤°": 2015,
      "En": 2016,
      "Ġà¤¦à¤¸": 2017,
      "Ġà¤ĺà¤¡": 2018,
      "ict": 2019,
      "Ġposs": 2020,
      "Ġguide": 2021,
      "ĠMus": 2022,
      "Ġfail": 2023,
      "ĠAl": 2024,
      "à¤Ĩà¤°": 2025,
      "Verily": 2026,
      "Ġforb": 2027,
      "dit": 2028,
      "Ġà¤¸à¤ľà¤¦": 2029,
      "Ġà¤µà¤¸": 2030,
      "Ġpain": 2031,
      "ten": 2032,
      "Ġconcer": 2033,
      "Ġrun": 2034,
      "braham": 2035,
      "Ġsy": 2036,
      "alendar": 2037,
      "iv": 2038,
      "Ġà¤Ĩà¤¸": 2039,
      "ough": 2040,
      "Ġsaying": 2041,
      "à¤¦à¤°à¤¤": 2042,
      "Ġà¤ħà¤²à¤Ĺ": 2043,
      "Ġunjust": 2044,
      "Ġchastise": 2045,
      "Ġaddress": 2046,
      "ife": 2047,
      "ĠUn": 2048,
      "Ġchildren": 2049,
      "Ġà¤ĩà¤¤à¤¨": 2050,
      "merica": 2051,
      "Ġ200": 2052,
      "Ġtowards": 2053,
      "rror": 2054,
      "Ġà¤ħà¤µà¤¶": 2055,
      "Ġeyes": 2056,
      "âĢľ": 2057,
      "à¤Ĺà¤¨": 2058,
      "Ġà¤īà¤¦": 2059,
      "Ġprotect": 2060,
      "nto": 2061,
      "Ġcomes": 2062,
      "Ġà¤¹à¤°à¤Ĺ": 2063,
      "Ġid": 2064,
      "aring": 2065,
      "Ġpers": 2066,
      "Ġà¤¸à¤²": 2067,
      "Ġdri": 2068,
      "Im": 2069,
      "à¤¨à¤°": 2070,
      "à¤ħà¥Ľ": 2071,
      "ex": 2072,
      "Ġà¤ªà¤ķà¤¡": 2073,
      "Ġdirect": 2074,
      "à¤Ĩà¤ªà¤ķ": 2075,
      "dom": 2076,
      "odu": 2077,
      "volution": 2078,
      "à¤¤à¤ľ": 2079,
      "ys": 2080,
      "Ġmount": 2081,
      "ments": 2082,
      "à¤¤à¤ķ": 2083,
      "à¤·à¤£": 2084,
      "wor": 2085,
      "mon": 2086,
      "chi": 2087,
      "à¤ļà¤°": 2088,
      "à¤Ĳà¤¸": 2089,
      "Ġbesides": 2090,
      "ĠName": 2091,
      "put": 2092,
      "af": 2093,
      "Ġrevelations": 2094,
      "ĠLo": 2095,
      "à¤ļà¤¯à¤¨": 2096,
      "Ġà¤¤à¤®": 2097,
      "Ġabove": 2098,
      "igh": 2099,
      "Ġterm": 2100,
      "Ġforgiveness": 2101,
      "men": 2102,
      "Ġbelongs": 2103,
      "Ġinformation": 2104,
      "Ġnumber": 2105,
      "Ġà¤Ĺà¤°": 2106,
      "Ġlast": 2107,
      "Why": 2108,
      "ailed": 2109,
      "lose": 2110,
      "Ġenj": 2111,
      "Ġà¤Ĩà¤ªà¤¸": 2112,
      "ĠCom": 2113,
      "Ġdie": 2114,
      "Ġtold": 2115,
      "à¤¼à¥Ĥ": 2116,
      "Ġ5": 2117,
      "Ġexp": 2118,
      "ger": 2119,
      "Our": 2120,
      "New": 2121,
      "right": 2122,
      "line": 2123,
      "ual": 2124,
      "inn": 2125,
      "aid": 2126,
      "ĠThere": 2127,
      "Ġdrink": 2128,
      "ained": 2129,
      "Ġstri": 2130,
      "She": 2131,
      "Ġà¤ªà¤°à¤¹": 2132,
      "Surely": 2133,
      "ME": 2134,
      "lied": 2135,
      "Ġlead": 2136,
      "à¤¬à¤¸": 2137,
      "alue": 2138,
      "ash": 2139,
      "Ġenem": 2140,
      "Ġdoing": 2141,
      "su": 2142,
      "Ġà¤®à¤¸": 2143,
      "Ġblo": 2144,
      "ĠWhat": 2145,
      "mb": 2146,
      "Ġà¤¨à¤¬": 2147,
      "à¥ĩà¤Ĥà¥¤": 2148,
      "int": 2149,
      "uthor": 2150,
      "Ġold": 2151,
      "Whether": 2152,
      "Ġnear": 2153,
      "Ġhard": 2154,
      "ĠQuran": 2155,
      "Ġà¤īà¤¸à¤ªà¤°": 2156,
      "Ġappointed": 2157,
      "à¥Ī...": 2158,
      "à¤ļà¤²": 2159,
      "Open": 2160,
      "America": 2161,
      "onna": 2162,
      "Ġcontact": 2163,
      "à¤¦à¤ķ": 2164,
      "Ġà¤Ĩà¤ĵ": 2165,
      "à¥Ī:": 2166,
      "Ġcalled": 2167,
      "Ġà¤ĸà¤¡": 2168,
      "Ġforgive": 2169,
      "Ġyears": 2170,
      "ource": 2171,
      "Ġdwell": 2172,
      "Ġà¤Ĩà¤®": 2173,
      "yp": 2174,
      "à¤ªà¤ķ": 2175,
      "Ġhell": 2176,
      "Ġrepent": 2177,
      "à¤µà¤¶": 2178,
      "Ġgroup": 2179,
      "Ġpeace": 2180,
      "Ġà¤ķà¤²": 2181,
      "Ġloc": 2182,
      "Ġpay": 2183,
      "Ġwealth": 2184,
      "à¤§à¤°": 2185,
      "Ġà¤¸à¤«": 2186,
      "Ġapost": 2187,
      "à¤¸à¤µ": 2188,
      "Ġhast": 2189,
      "Ġservants": 2190,
      "à¥Ľà¤Ĺ": 2191,
      "Ġchastisement": 2192,
      "à¤Ľà¤µ": 2193,
      "ĠSurely": 2194,
      "ried": 2195,
      "Ġgonna": 2196,
      "ĠRe": 2197,
      "Ġplay": 2198,
      "Ġà¤Ĩà¤Ī": 2199,
      "Ġharm": 2200,
      "Ġtry": 2201,
      "Ġà¤ĸà¥ľ": 2202,
      "].": 2203,
      "Ġfalse": 2204,
      "Ġproject": 2205,
      "used": 2206,
      "à¥ĩà¤Ĥ...": 2207,
      "Ġà¤ªà¤Ł": 2208,
      "Ġdoubt": 2209,
      "à¤ħà¤ª": 2210,
      "Not": 2211,
      "à¤µà¤¦à¤°": 2212,
      "âĢ¦": 2213,
      "Ġavail": 2214,
      "à¤ĩà¤¸à¤ķ": 2215,
      "ER": 2216,
      "Ġable": 2217,
      ",\"": 2218,
      "Ġpri": 2219,
      "raise": 2220,
      "Save": 2221,
      "Ġ0": 2222,
      "arad": 2223,
      "Your": 2224,
      "Ġfall": 2225,
      "Ġbu": 2226,
      "arch": 2227,
      "Ġà¤ħà¤®": 2228,
      "AW": 2229,
      "Ġfam": 2230,
      "ompen": 2231,
      "ĠMessengers": 2232,
      "Ġest": 2233,
      "Lo": 2234,
      "Ġconcerning": 2235,
      "older": 2236,
      "à¤¸à¤²à¤®": 2237,
      "Ġsm": 2238,
      "aradise": 2239,
      "à¤¶à¤¬": 2240,
      "à¥ļà¤°à¥Ľ": 2241,
      "Ġà¤ļà¤¯à¤¨": 2242,
      "à¤ĳ": 2243,
      "Ġ,": 2244,
      "Ġjudge": 2245,
      "ial": 2246,
      "Ġcur": 2247,
      "à¥Ĥà¤ģà¥¤": 2248,
      "Ġà¤ķà¤ł": 2249,
      "Ġtext": 2250,
      "ib": 2251,
      "à¤Ĩà¤¨": 2252,
      "inder": 2253,
      "Ġans": 2254,
      "ĠVerily": 2255,
      "Ġseen": 2256,
      "Ġwish": 2257,
      "Ġplease": 2258,
      "tern": 2259,
      "sp": 2260,
      "Ġà¤ªà¤¥": 2261,
      "earch": 2262,
      "Ġstill": 2263,
      "à¤ķà¤¸": 2264,
      "Ġmor": 2265,
      "Ġtherefore": 2266,
      "Ġsky": 2267,
      "à¤¨à¤²": 2268,
      "Ġà¤¤à¤ķà¤²": 2269,
      "Ġdra": 2270,
      "ĠPharaoh": 2271,
      "\",": 2272,
      "Pro": 2273,
      "ertific": 2274,
      "ĠYour": 2275,
      "Ġà¤¹à¤µ": 2276,
      "Ġà¤īà¤²": 2277,
      "Ġwills": 2278,
      "Ġetc": 2279,
      "ĠWise": 2280,
      "Ġhon": 2281,
      "Ġform": 2282,
      "Ġfree": 2283,
      "à¤¼à¥ĭà¤Ĥ": 2284,
      "Ġsun": 2285,
      "ĠBe": 2286,
      "Ġimp": 2287,
      "Ġmother": 2288,
      "tt": 2289,
      "à¤ħà¤®à¤¤": 2290,
      "à¤µà¤ľ": 2291,
      "vere": 2292,
      "à¤²à¤ķà¤°": 2293,
      "à¤Ĩà¥Ļ": 2294,
      "Ġtransgress": 2295,
      "hood": 2296,
      "Ġà¤ħà¤ľ": 2297,
      "Ġstay": 2298,
      "Ġà¤ªà¤²à¤Ł": 2299,
      "az": 2300,
      "ote": 2301,
      "à¥Ģà¤Ĥ.": 2302,
      "Ġmeans": 2303,
      "ened": 2304,
      "ities": 2305,
      "abl": 2306,
      "ience": 2307,
      "à¤¬à¤¦": 2308,
      "Ġà¥ĺà¤¸à¤®": 2309,
      "Ġbar": 2310,
      "IS": 2311,
      "Ġpainful": 2312,
      "Ġà¤¤à¤²": 2313,
      "ires": 2314,
      "Ġed": 2315,
      "Ġalone": 2316,
      "Ġdiffe": 2317,
      "Ġhome": 2318,
      "Ġà¥Ļà¤°": 2319,
      "à¤Īà¤²": 2320,
      "Ġlive": 2321,
      "Ġbur": 2322,
      "aim": 2323,
      "Ġà¤Ĩà¤¶": 2324,
      "à¤Ŀà¤¸": 2325,
      "tend": 2326,
      "ugin": 2327,
      "Ġà¤Ķà¤²": 2328,
      "from": 2329,
      "Ġtook": 2330,
      "Ġlaw": 2331,
      "Ġgener": 2332,
      "Ġdays": 2333,
      "ical": 2334,
      "Ġnews": 2335,
      "ody": 2336,
      "ope": 2337,
      "à¤²à¤®": 2338,
      "Ġà¤¤à¤¸": 2339,
      "arent": 2340,
      "Ġincre": 2341,
      "Ġpromised": 2342,
      "à¤Ĺà¤¦à¤°": 2343,
      "Let": 2344,
      "Ġà¤ħà¤Ĺà¤²": 2345,
      "Ġgrie": 2346,
      "Ġrecompen": 2347,
      "Ġdestroyed": 2348,
      "à¤¯à¤¸": 2349,
      "Ġreally": 2350,
      "ood": 2351,
      "ext": 2352,
      "und": 2353,
      "Ġ4": 2354,
      "Ġsins": 2355,
      "Ġcommit": 2356,
      "ines": 2357,
      "By": 2358,
      "ifest": 2359,
      "à¤®à¤Ĺ": 2360,
      "ames": 2361,
      "ense": 2362,
      "Ġkn": 2363,
      "ield": 2364,
      "ols": 2365,
      "Ġtaken": 2366,
      "stem": 2367,
      "Ġmonth": 2368,
      "ters": 2369,
      "ĠSAW": 2370,
      "Ġprostr": 2371,
      "ways": 2372,
      "ĠAbraham": 2373,
      "à¤£à¤ªà¤¤": 2374,
      "ĠOne": 2375,
      "Ġsor": 2376,
      ".)": 2377,
      "oe": 2378,
      "Pl": 2379,
      "Ġà¤ĩà¤¤": 2380,
      "à¥Ĥà¤ģ,": 2381,
      "Ġà¤ķà¤¦": 2382,
      "ps": 2383,
      "Ġà¤Ńà¤¯": 2384,
      "Ġà¤¨à¤¹à¤°": 2385,
      "Ġhold": 2386,
      "Ġbear": 2387,
      "à¤¯à¤¶": 2388,
      "Ġà¤ļà¤ĸ": 2389,
      "ention": 2390,
      "Ġcount": 2391,
      "Ġsuccess": 2392,
      "Error": 2393,
      "ĠZ": 2394,
      "Ġmag": 2395,
      "à¥ĩ!": 2396,
      "à¥Ľà¤¤": 2397,
      "Ġstate": 2398,
      "Ġlie": 2399,
      "Ġgrant": 2400,
      "Now": 2401,
      "Ġraised": 2402,
      "Muhammad": 2403,
      "Ġfar": 2404,
      "Ġwhy": 2405,
      "\"%": 2406,
      "à¥ĭà¤Ĥ,": 2407,
      "Ġfru": 2408,
      "Ġà¤¬à¤ľ": 2409,
      "Did": 2410,
      "ude": 2411,
      "cument": 2412,
      "ank": 2413,
      "load": 2414,
      "ized": 2415,
      "Oh": 2416,
      "Ġ#": 2417,
      "Ġà¤¨à¤¯": 2418,
      "io": 2419,
      "ours": 2420,
      "Ġaut": 2421,
      "Ġsame": 2422,
      "Ġmanifest": 2423,
      "Ġà¤Ĩà¤ıà¤Ĺ": 2424,
      "Ġdata": 2425,
      "hange": 2426,
      "OU": 2427,
      "gment": 2428,
      "à¤¯à¤µ": 2429,
      "ĠJud": 2430,
      "Ġcompan": 2431,
      "Ġtalk": 2432,
      "Ġà¤¦à¤°à¤®": 2433,
      "Ġspend": 2434,
      "Ġà¤°à¤¹à¤®": 2435,
      "mission": 2436,
      "Ġdiv": 2437,
      "Ġpatient": 2438,
      "Ġchange": 2439,
      "Ġflow": 2440,
      "Ġtask": 2441,
      "Ġà¤¹à¤¸": 2442,
      "à¤¾;": 2443,
      "Ġestabl": 2444,
      "gram": 2445,
      "wise": 2446,
      "Ġspec": 2447,
      "Ġitem": 2448,
      "lick": 2449,
      "Ġauthor": 2450,
      "Ġmessengers": 2451,
      "fer": 2452,
      "eople": 2453,
      "Ġwrit": 2454,
      "à¤Ĺà¤µ": 2455,
      "Ġdesire": 2456,
      "?âĢĿ": 2457,
      "à¥ĩà¤Ĥ:": 2458,
      "Ġadv": 2459,
      "Ġcreation": 2460,
      "Ġchar": 2461,
      "oint": 2462,
      "Ġanyone": 2463,
      "à¤ľà¤°": 2464,
      "raight": 2465,
      "à¥Ī;": 2466,
      "umb": 2467,
      "Ġtre": 2468,
      "ived": 2469,
      "Ġà¤®à¤ķ": 2470,
      "Ġquest": 2471,
      "Move": 2472,
      "de": 2473,
      "reate": 2474,
      "vious": 2475,
      "Ġwhosoever": 2476,
      "Ġà¤īà¤ļ": 2477,
      "Ġsaw": 2478,
      "ertificate": 2479,
      "à¤ıà¤®": 2480,
      "Ġtown": 2481,
      "Ġà¤¨à¤ķ": 2482,
      "view": 2483,
      "Ġwhether": 2484,
      "Ġpossess": 2485,
      "ery": 2486,
      "Ġtid": 2487,
      "Ġwife": 2488,
      "Ġà¤°à¤¹à¤®à¤¤": 2489,
      "Ġfathers": 2490,
      "à¤¹à¥ĺ": 2491,
      "light": 2492,
      "Where": 2493,
      "ideo": 2494,
      "Ġtou": 2495,
      "Ġaround": 2496,
      "Ġpresent": 2497,
      "Ġhimself": 2498,
      "ians": 2499,
      "à¤Łà¤²": 2500,
      "ĠThou": 2501,
      "à¤¨à¤¸": 2502,
      "Ġwis": 2503,
      "Ġà¤²à¥ľà¤ķ": 2504,
      "Ġthought": 2505,
      "ĠForgiving": 2506,
      "ton": 2507,
      "Ġà¤ħà¤ªà¤°": 2508,
      "Ġnation": 2509,
      "Ġdenied": 2510,
      "à¤±": 2511,
      "Ġà¤ĩà¤¸à¤°": 2512,
      "Ġfamily": 2513,
      "ows": 2514,
      "creen": 2515,
      "Ġà¤«à¤²": 2516,
      "Ġtype": 2517,
      "Ġcheck": 2518,
      "Ġverses": 2519,
      "bar": 2520,
      "hich": 2521,
      "uring": 2522,
      "Ġdisplay": 2523,
      "ones": 2524,
      "ĠUR": 2525,
      "Ġà¤ıà¤µ": 2526,
      "ner": 2527,
      "ĠWhen": 2528,
      "ĠTruth": 2529,
      "Ġenc": 2530,
      "ches": 2531,
      "lam": 2532,
      "Ġà¤ķà¤¬": 2533,
      "Ġcond": 2534,
      "eah": 2535,
      "Ġà¤ªà¤¸à¤¨": 2536,
      "Ġbount": 2537,
      "ĠIsra": 2538,
      "à¤¦à¤¸": 2539,
      "osed": 2540,
      "Ġface": 2541,
      "à¥Ľà¤²": 2542,
      "Yes": 2543,
      "Ġaction": 2544,
      "wer": 2545,
      "ateful": 2546,
      "ĠSign": 2547,
      "Ġsoon": 2548,
      "Come": 2549,
      "pass": 2550,
      "Ġbenef": 2551,
      "AT": 2552,
      "ĠParadise": 2553,
      "Ġà¤ħà¤¨à¥ĺà¤°": 2554,
      "attle": 2555,
      "Ġill": 2556,
      "à¥Ģ!": 2557,
      "Ġsecre": 2558,
      "Ġà¤ĸà¤°": 2559,
      "oun": 2560,
      "box": 2561,
      "ĠSatan": 2562,
      "mand": 2563,
      "Ġmorning": 2564,
      "à¤ĩà¤¯": 2565,
      "Ġtidings": 2566,
      "à¤¸à¤¸": 2567,
      "à¤Ĩà¤ľ": 2568,
      "ased": 2569,
      "Pre": 2570,
      "Ġload": 2571,
      "Ġà¤®à¤¤à¤²à¤¬": 2572,
      "ĠUnto": 2573,
      "Ġgone": 2574,
      "Use": 2575,
      "à¤µà¤§": 2576,
      "Ġhuman": 2577,
      "Ġnext": 2578,
      "ĠOn": 2579,
      "Hey": 2580,
      "bit": 2581,
      "Ġà¤ªà¤¹à¤ļ": 2582,
      "Ġuser": 2583,
      "ched": 2584,
      "har": 2585,
      "Ġsearch": 2586,
      "à¤ıà¤µ": 2587,
      "Ġà¤ħà¤µà¤¤à¤°": 2588,
      "Ġasked": 2589,
      "Ġrel": 2590,
      "ices": 2591,
      "Ġtaste": 2592,
      "ML": 2593,
      "tings": 2594,
      "à¤ĩà¤Ł": 2595,
      "à¥ŀà¤¤": 2596,
      "Ġà¤ħà¤¸à¤«à¤²": 2597,
      "pty": 2598,
      "Ġknew": 2599,
      "ured": 2600,
      "à¤°à¤Ĩà¤¨": 2601,
      "Ġext": 2602,
      "OR": 2603,
      "ature": 2604,
      "Ġworks": 2605,
      "Ġpassword": 2606,
      "Ġwives": 2607,
      "ĠAd": 2608,
      "lders": 2609,
      "Ġcast": 2610,
      "Ġfailed": 2611,
      "ator": 2612,
      "Ġmean": 2613,
      "Ġart": 2614,
      "Create": 2615,
      "âĻ": 2616,
      "DE": 2617,
      "Ġgives": 2618,
      "ĠPro": 2619,
      "Ġblind": 2620,
      "Ġfact": 2621,
      "Ġtruthful": 2622,
      "Failed": 2623,
      "ds": 2624,
      "ĠScript": 2625,
      "arer": 2626,
      "Ġevid": 2627,
      "ulf": 2628,
      "Ġplan": 2629,
      "know": 2630,
      "Ġ{": 2631,
      "Ġdisbelieved": 2632,
      "ging": 2633,
      "ĠIm": 2634,
      ",-": 2635,
      "sed": 2636,
      "use": 2637,
      "ĠIsrael": 2638,
      "Ġà¤Ńà¤Łà¤ķ": 2639,
      "Don": 2640,
      "Ġlies": 2641,
      "ully": 2642,
      "Ġfeel": 2643,
      "iness": 2644,
      "Ġà¤Ĩà¤§": 2645,
      "aut": 2646,
      "These": 2647,
      "Ġburn": 2648,
      "Well": 2649,
      "Ġview": 2650,
      "Ġtill": 2651,
      "orn": 2652,
      "Edit": 2653,
      "Ġhost": 2654,
      "ues": 2655,
      "Ġmountains": 2656,
      "à¤¹à¤¬": 2657,
      "à¤ħà¤Ń": 2658,
      "ON": 2659,
      "Ġopp": 2660,
      "venant": 2661,
      "Ġconnect": 2662,
      "'d": 2663,
      "Ġjinn": 2664,
      "Enter": 2665,
      "âĻª": 2666,
      "Ġgardens": 2667,
      "Ġrivers": 2668,
      "Ġreceive": 2669,
      "Ġlisten": 2670,
      "lf": 2671,
      "à¥°": 2672,
      "Ġmind": 2673,
      "ently": 2674,
      "à¤¸à¤¹": 2675,
      "à¤¨à¤·": 2676,
      "Ġmem": 2677,
      "à¥Ģ?": 2678,
      "Ġsons": 2679,
      "Ġsays": 2680,
      "Ġà¥Ļà¤¬à¤°": 2681,
      "à¤¾...": 2682,
      "Ġfil": 2683,
      "Ġlost": 2684,
      "Ġperson": 2685,
      "Ġter": 2686,
      "cy": 2687,
      "ream": 2688,
      "Ġthree": 2689,
      "Ġmin": 2690,
      "atus": 2691,
      "à¥Ļà¤¬à¤°": 2692,
      "Remove": 2693,
      "hr": 2694,
      "Ġmagic": 2695,
      "Copy": 2696,
      "Ġdate": 2697,
      "Ġdocument": 2698,
      "Ġà¤Īà¤¸": 2699,
      "cks": 2700,
      "ptions": 2701,
      "lict": 2702,
      "ets": 2703,
      "hir": 2704,
      "Ġrecompense": 2705,
      "Ġ?": 2706,
      "Ġsea": 2707,
      "à¥Ī?\"": 2708,
      "Ġport": 2709,
      "ourse": 2710,
      "ĠEvolution": 2711,
      "Ġprovided": 2712,
      "ility": 2713,
      "ĠWor": 2714,
      "ublic": 2715,
      "Ġmessenger": 2716,
      "uration": 2717,
      "à¤ĩà¤¸à¤®": 2718,
      "Ġvalue": 2719,
      "ination": 2720,
      "ording": 2721,
      "Ġkey": 2722,
      "ached": 2723,
      "à¤®à¤¯": 2724,
      "Ġcommun": 2725,
      "Comment": 2726,
      "aves": 2727,
      "Ġign": 2728,
      "Ġwords": 2729,
      "Ġà¤¶à¤¹à¤°": 2730,
      "'%": 2731,
      "Ġsim": 2732,
      "Ġcovenant": 2733,
      "à¤ıà¤¶": 2734,
      "Ġthereof": 2735,
      "bs": 2736,
      "Get": 2737,
      "then": 2738,
      "rent": 2739,
      "à¤ķà¤®à¤¤": 2740,
      "Ġsur": 2741,
      "Ġmode": 2742,
      "arden": 2743,
      "osition": 2744,
      "Ġhouse": 2745,
      "Ġ)": 2746,
      "Ġà¤ıà¤ĸ": 2747,
      "à¤ĩà¤¶": 2748,
      "Ġvis": 2749,
      "Ġoption": 2750,
      "Ġfirm": 2751,
      "à¤Īà¤®": 2752,
      "ative": 2753,
      "Pr": 2754,
      "alted": 2755,
      "12": 2756,
      "Ġà¤ĩà¤ķà¤Ł": 2757,
      "Ġà¤Ĺà¤²à¤¤": 2758,
      "asure": 2759,
      "ontact": 2760,
      "pend": 2761,
      "ypoc": 2762,
      "Ġplac": 2763,
      "Ġlest": 2764,
      "olum": 2765,
      "Moses": 2766,
      "atic": 2767,
      "Ġexam": 2768,
      "ĠDe": 2769,
      "ng": 2770,
      "Ġeas": 2771,
      "Ġà¤ļà¤¨": 2772,
      "Ġinfo": 2773,
      "Ġcal": 2774,
      "Ġheed": 2775,
      "Ġbecame": 2776,
      "Ġx": 2777,
      "Ġhigh": 2778,
      "Ġprep": 2779,
      "Ġcolor": 2780,
      "Ġsaved": 2781,
      "Ġbelieving": 2782,
      "who": 2783,
      "Ġparent": 2784,
      "Ġà¥ŀà¤°à¤®": 2785,
      "à¤Łà¤¶à¤¬": 2786,
      "Ġassociate": 2787,
      "Ġà¤¦à¤²": 2788,
      "Ġarg": 2789,
      "angu": 2790,
      "Ġà¤Ŀà¤Ĺà¥ľ": 2791,
      "Aut": 2792,
      "Ġbir": 2793,
      "Ġking": 2794,
      "Ġà¤ĩà¤ľ": 2795,
      "cend": 2796,
      "Ġremain": 2797,
      "Ġà¤Ķà¤±": 2798,
      "Ġpar": 2799,
      "Ġdesires": 2800,
      "ĠView": 2801,
      "à¤¦à¤¶": 2802,
      "Ġquestion": 2803,
      "known": 2804,
      "Ġcoming": 2805,
      "Ġprodu": 2806,
      "ĠMessage": 2807,
      "Ġmakes": 2808,
      "à¤ĸà¤¦": 2809,
      "Ġwronged": 2810,
      "Ġcare": 2811,
      "Ġprovision": 2812,
      "Ġfulf": 2813,
      "leted": 2814,
      "ling": 2815,
      "Ġforbidden": 2816,
      "icient": 2817,
      "Ġknown": 2818,
      "Ġdut": 2819,
      "ane": 2820,
      "Ġtem": 2821,
      "Ġsing": 2822,
      "Ġfaces": 2823,
      "Ġremove": 2824,
      "Ġdue": 2825,
      "ĠThus": 2826,
      "Ġenemy": 2827,
      "ek": 2828,
      "Ġsevere": 2829,
      "Ġà¤ļà¤²à¤¨": 2830,
      "fully": 2831,
      "ason": 2832,
      "Ġgods": 2833,
      "uge": 2834,
      "Ġ6": 2835,
      "Ġfew": 2836,
      "urope": 2837,
      "Ġless": 2838,
      "Ġhypoc": 2839,
      "Ġbef": 2840,
      "Ġexce": 2841,
      "à¥ĺà¤¸": 2842,
      "à¤²à¤Ĺà¤ĩà¤¨": 2843,
      "Ġaw": 2844,
      "Ġà¤¬à¤ķ": 2845,
      "ĠHow": 2846,
      "mes": 2847,
      "Asia": 2848,
      "Ġfr": 2849,
      "Ġhur": 2850,
      "Ġsight": 2851,
      "Ġà¤¨à¤«": 2852,
      "Ġdark": 2853,
      "irm": 2854,
      "min": 2855,
      ");": 2856,
      "Ġwent": 2857,
      "Ġfun": 2858,
      "à¤ļà¤¤": 2859,
      "oke": 2860,
      "Ġaffair": 2861,
      "fig": 2862,
      "Ġgre": 2863,
      "Ġà¤ıà¤¹à¤¸": 2864,
      "Ġside": 2865,
      "Ġfuck": 2866,
      "Ġfin": 2867,
      "urity": 2868,
      "Ġfood": 2869,
      "Ġalong": 2870,
      "ĠRem": 2871,
      "aj": 2872,
      "race": 2873,
      "Ġfollowing": 2874,
      "Ġcalendar": 2875,
      "Ġconce": 2876,
      "Ġdidn": 2877,
      "vent": 2878,
      "à¤¨à¤µà¤°": 2879,
      "à¥ĩà¤Ĥ?": 2880,
      "Ġreturned": 2881,
      "ken": 2882,
      "nower": 2883,
      "Ġsouls": 2884,
      "Ġmet": 2885,
      "à¤£à¤¨": 2886,
      "Ġrain": 2887,
      "Ġmove": 2888,
      "à¤īà¤Ł": 2889,
      "Ġfast": 2890,
      "à¤¸à¤°à¤£": 2891,
      "Ġocc": 2892,
      "à¤¥à¤°": 2893,
      "Ġchanges": 2894,
      "Ġequal": 2895,
      "Ġhaving": 2896,
      "ili": 2897,
      "Ġsince": 2898,
      "Ġgreater": 2899,
      "ret": 2900,
      "Ġfollowed": 2901,
      "ĠIslam": 2902,
      "ĠX": 2903,
      "à¤ªà¤¹à¤²": 2904,
      "Ġadmon": 2905,
      "Ġpraise": 2906,
      "Ġfriends": 2907,
      "Ġenjoy": 2908,
      "que": 2909,
      "Unable": 2910,
      "à¤¯à¤¤à¤¨": 2911,
      "Ġprof": 2912,
      "Ġmod": 2913,
      "Ġshare": 2914,
      "Ġline": 2915,
      "Ġsubmit": 2916,
      "con": 2917,
      "pr": 2918,
      "that": 2919,
      "ider": 2920,
      "Ġà¤¹à¤®à¤¸": 2921,
      "Ġà¥ļà¤°à¥Ľ": 2922,
      "Ġmeeting": 2923,
      "ĠScripture": 2924,
      "ĠPeople": 2925,
      "Ġhope": 2926,
      "/%": 2927,
      "à¤ķà¤¤à¤°": 2928,
      "ari": 2929,
      "ĠMary": 2930,
      "Ġusing": 2931,
      "Ġà¤¹à¤¦": 2932,
      "à¤Ľà¤¤": 2933,
      "à¤¯à¤²": 2934,
      "Ġexist": 2935,
      "Ġsecret": 2936,
      "verse": 2937,
      "ma": 2938,
      "Ġcle": 2939,
      "cribe": 2940,
      "Ġregard": 2941,
      "Search": 2942,
      "ey": 2943,
      "Ġedit": 2944,
      "à¤®à¤¹": 2945,
      "Ġsound": 2946,
      "Ġà¤ªà¤¨": 2947,
      "ĠAn": 2948,
      "Send": 2949,
      "Ġappoint": 2950,
      "Ġà¤¨à¤ľ": 2951,
      "Ġcity": 2952,
      "à¤¯à¤ª": 2953,
      "reng": 2954,
      "IM": 2955,
      "rog": 2956,
      "à¥ĺà¤¤": 2957,
      "à¥Ģ:": 2958,
      "seen": 2959,
      "lication": 2960,
      "ĠMo": 2961,
      "à¥ľà¤ķà¤°": 2962,
      "Ġdep": 2963,
      "Ġproof": 2964,
      "oney": 2965,
      "Ġsystem": 2966,
      "shi": 2967,
      "Ġbeg": 2968,
      "Ġheard": 2969,
      "à¤µà¤°à¤£": 2970,
      "Ġdisp": 2971,
      "Ġplain": 2972,
      "rol": 2973,
      "VD": 2974,
      "ism": 2975,
      "ĠThose": 2976,
      "ĠHour": 2977,
      "Ġleast": 2978,
      "Ġdirectory": 2979,
      "ĠKnowing": 2980,
      "Ġà¤¹à¤Łà¤ķà¤°": 2981,
      "Ġswear": 2982,
      "rica": 2983,
      "à¤§à¤ķ": 2984,
      "à¥Ľà¤®": 2985,
      "Ġà¤§à¤°": 2986,
      "Ġpermission": 2987,
      "lled": 2988,
      "Ġà¤ħà¤¹à¤²": 2989,
      "ander": 2990,
      "lythe": 2991,
      "ager": 2992,
      "Ġbreak": 2993,
      "CK": 2994,
      "Ġà¤ħà¤µà¤ľ": 2995,
      "Ġstraight": 2996,
      "à¤¹à¤ķ": 2997,
      "Ġsize": 2998,
      "à¤ħà¤«": 2999,
      "Ġ10": 3000,
      "Ġali": 3001,
      "imes": 3002,
      "Ġauthority": 3003,
      "ES": 3004,
      "Ġà¤¦à¤¬": 3005,
      "esus": 3006,
      "Ġwarner": 3007,
      "Delete": 3008,
      "onds": 3009,
      "chive": 3010,
      "Set": 3011,
      "Ġblessings": 3012,
      "Ġanswer": 3013,
      "lection": 3014,
      "à¥Īà¤Ĥ)": 3015,
      "à¤ĵà¤¹": 3016,
      "pped": 3017,
      "Ġpartners": 3018,
      "Yeah": 3019,
      "Tr": 3020,
      "Ġrejected": 3021,
      "OP": 3022,
      "Ġprogram": 3023,
      "Sh": 3024,
      "Ġexc": 3025,
      "Ġcase": 3026,
      "Ġstreng": 3027,
      "Ġwithin": 3028,
      "à¤¹à¤Ĺ": 3029,
      "à¤Ńà¤²": 3030,
      "Ġparents": 3031,
      "Okay": 3032,
      "Ġà¤¶à¤¬": 3033,
      "ĠCon": 3034,
      "Ġreach": 3035,
      "Ġinte": 3036,
      "Ġstop": 3037,
      "name": 3038,
      "ales": 3039,
      "à¤Ńà¤µ": 3040,
      "ouses": 3041,
      "ilt": 3042,
      "Ġbestowed": 3043,
      "File": 3044,
      "à¤¥à¤®": 3045,
      "Ġreminder": 3046,
      "Ġforever": 3047,
      "quot": 3048,
      "Ġdefault": 3049,
      "ech": 3050,
      "uly": 3051,
      "Ġà¤²à¤ķ": 3052,
      "Ġlos": 3053,
      "Ġà¥ĺà¤¬": 3054,
      "ĠMusli": 3055,
      "Ġà¤ħà¤«": 3056,
      "itle": 3057,
      "Ġà¤ªà¤°à¤¸à¤¤": 3058,
      "Ġworshi": 3059,
      "efault": 3060,
      "TP": 3061,
      "ustom": 3062,
      "Ġcorru": 3063,
      "à¤°à¤·": 3064,
      "thy": 3065,
      "Ġalways": 3066,
      "à¤²à¤°": 3067,
      "Ġfem": 3068,
      "à¤«à¤°": 3069,
      "à¤ªà¤°à¤¸": 3070,
      "Ġunless": 3071,
      "Ġparty": 3072,
      "Ġcommanded": 3073,
      "bed": 3074,
      "Ġà¤°à¤¦": 3075,
      "Ġà¤°à¤ķ": 3076,
      "Ġà¤§à¤¨": 3077,
      "Ġvict": 3078,
      "illed": 3079,
      "ĠAp": 3080,
      "rites": 3081,
      "HE": 3082,
      "Ġut": 3083,
      "Ġappe": 3084,
      "Ġà¤īà¤²à¤Ł": 3085,
      "Ġchild": 3086,
      "ĠWill": 3087,
      "Ġexpl": 3088,
      "Ġduty": 3089,
      "ĠFolder": 3090,
      "Ġtar": 3091,
      "ntic": 3092,
      "Ġtoday": 3093,
      "ews": 3094,
      "à¤ľà¤²": 3095,
      "à¤Ĩà¤ķ": 3096,
      "ĠPl": 3097,
      "oseph": 3098,
      "Ġkilled": 3099,
      "ckon": 3100,
      "Ġeasy": 3101,
      "hall": 3102,
      "Ġthus": 3103,
      "List": 3104,
      "hite": 3105,
      "eting": 3106,
      "ĠChildren": 3107,
      "à¤¸à¤®à¤°": 3108,
      "à¤¦à¤¬": 3109,
      "Ġà¤¶à¤¤": 3110,
      "aster": 3111,
      "Ġwrite": 3112,
      "Ġsuffer": 3113,
      "Ser": 3114,
      "par": 3115,
      "rence": 3116,
      "à¤¨à¤Ł": 3117,
      "ular": 3118,
      "Ġà¤¹à¤®à¤ķ": 3119,
      "Ġmoon": 3120,
      "Ġfriend": 3121,
      "hentic": 3122,
      "Ġeither": 3123,
      "Ġhide": 3124,
      "à¤°à¤ķà¤°": 3125,
      "Ġoath": 3126,
      "ĠMan": 3127,
      "à¥Ĥà¤ģà¥¤\"": 3128,
      "His": 3129,
      "à¤¹à¤²à¤¤": 3130,
      "ils": 3131,
      "ĠFile": 3132,
      "Ġguides": 3133,
      "Ġwoman": 3134,
      "Ġgrace": 3135,
      "LL": 3136,
      "Ġwind": 3137,
      "Ġseized": 3138,
      "ier": 3139,
      "Ġmiss": 3140,
      "Ġru": 3141,
      "Ġstrong": 3142,
      "à¤¹à¤¶": 3143,
      "Ġpage": 3144,
      "Ġà¤ħà¤µà¤§": 3145,
      "Ġempty": 3146,
      "Ġrefuge": 3147,
      "Look": 3148,
      "gn": 3149,
      "Ġship": 3150,
      "aying": 3151,
      "cious": 3152,
      "Ġmeasure": 3153,
      "Start": 3154,
      "ai": 3155,
      "Ġel": 3156,
      "Ġdifferent": 3157,
      ")?": 3158,
      "à¤°à¤ķà¤¤": 3159,
      "Ġformat": 3160,
      "Ġprepared": 3161,
      "Check": 3162,
      "Ġà¥ĺà¤¤": 3163,
      "Ġaccording": 3164,
      "mm": 3165,
      "Ġglad": 3166,
      "ĠCD": 3167,
      "Ġ19": 3168,
      "Ġreport": 3169,
      "Ġfour": 3170,
      "Ġweak": 3171,
      "my": 3172,
      "Ġ..": 3173,
      "Ġà¤¦à¤¶": 3174,
      "come": 3175,
      "Ġ7": 3176,
      "à¤¤à¤²": 3177,
      "Ġclose": 3178,
      "ored": 3179,
      "ateg": 3180,
      "Ġprophet": 3181,
      "valid": 3182,
      "Ġbehold": 3183,
      "ĠPr": 3184,
      "unk": 3185,
      "Ġz": 3186,
      "Ġsit": 3187,
      "ush": 3188,
      "Ġreceived": 3189,
      "Ġbad": 3190,
      "ĠGardens": 3191,
      "Ġfalsehood": 3192,
      "Ġpassed": 3193,
      "gg": 3194,
      "Every": 3195,
      "Ġavailable": 3196,
      "à¥ħ": 3197,
      "omatic": 3198,
      "Ġhidden": 3199,
      "à¤µà¤ļ": 3200,
      "ĠLast": 3201,
      "Ġseven": 3202,
      "Ġcomplete": 3203,
      "Ġà¥ŀà¤°": 3204,
      "Ġpropert": 3205,
      "po": 3206,
      "à¤¿.": 3207,
      "Ġà¤ĩà¤ļ": 3208,
      "Ġabide": 3209,
      "à¤¹à¤¨": 3210,
      "ually": 3211,
      "Ġinstead": 3212,
      "Ġ~": 3213,
      "olk": 3214,
      "Ġà¤¨à¥Ľà¤°": 3215,
      "Ġcontin": 3216,
      "Ġà¤Ŀà¤Ĺà¤¡": 3217,
      "Ġbenefit": 3218,
      "Ġwatch": 3219,
      "Ġsho": 3220,
      "Ġduring": 3221,
      "Had": 3222,
      "mail": 3223,
      "Ġ!": 3224,
      "Ġà¤ķà¤¨": 3225,
      "ump": 3226,
      "à¤¿:": 3227,
      "à¤¦à¤²": 3228,
      "Ġà¤īà¤¡": 3229,
      "Some": 3230,
      "Ġcri": 3231,
      "Ġmention": 3232,
      "Ġreal": 3233,
      "Ġfavour": 3234,
      "enance": 3235,
      "Ġlot": 3236,
      "à¤¸à¤ļ": 3237,
      "Ġdrive": 3238,
      "olumn": 3239,
      "Ġà¤ıà¤¹à¤¦": 3240,
      "Ġà¤¨à¤ı": 3241,
      "rain": 3242,
      "Ġbounty": 3243,
      "Ġincl": 3244,
      "abel": 3245,
      "Ġwon": 3246,
      "itude": 3247,
      "Ġwilled": 3248,
      "Ġdaught": 3249,
      ")...": 3250,
      "vert": 3251,
      "à¤łà¤ķ": 3252,
      "Ġsle": 3253,
      "Ġsir": 3254,
      "Ġcr": 3255,
      "Ġcaused": 3256,
      "ĠHT": 3257,
      "Ġperform": 3258,
      "ĠNoah": 3259,
      "Nor": 3260,
      "eace": 3261,
      "à¥ĩ;": 3262,
      "Ġau": 3263,
      "Ġà¤ªà¤°à¤¨": 3264,
      "hrist": 3265,
      "Ġreason": 3266,
      "Ġbutton": 3267,
      "Ġthanks": 3268,
      "ta": 3269,
      "Ġappro": 3270,
      "à¤¬à¤ĸ": 3271,
      "Ġfolders": 3272,
      "à¤¸à¤ªà¤°": 3273,
      "Ġearned": 3274,
      "Ġtree": 3275,
      "Ġwhomever": 3276,
      "Ġà¤īà¤ªà¤¸": 3277,
      "Ġrecord": 3278,
      "Ġsecure": 3279,
      "med": 3280,
      "à¤¸à¤ª": 3281,
      "Ġtruly": 3282,
      "à¤¹à¤¸": 3283,
      "à¤ħà¤§": 3284,
      "ĠPlease": 3285,
      "Ġsingle": 3286,
      "ĠMighty": 3287,
      "mighty": 3288,
      "Ġcry": 3289,
      "à¤ħà¤ľ": 3290,
      "Ġrunning": 3291,
      "Ġà¤¬à¤¦à¤ķ": 3292,
      "Ġà¤¸à¤°à¤ªà¤°à¤¸": 3293,
      "claim": 3294,
      "Rep": 3295,
      "SL": 3296,
      "Ġes": 3297,
      "arn": 3298,
      "MS": 3299,
      "Ġoper": 3300,
      "Ġinher": 3301,
      "à¤«à¤¤": 3302,
      "ĠList": 3303,
      "Ġevent": 3304,
      "ike": 3305,
      "anguage": 3306,
      "Ġcli": 3307,
      "ange": 3308,
      "Ġconceal": 3309,
      "rible": 3310,
      "ession": 3311,
      "à¤īà¤ªà¤¯": 3312,
      "top": 3313,
      "Ġmain": 3314,
      "Ġà¤¬à¤¹à¤ķ": 3315,
      "Ġguil": 3316,
      "Ġenough": 3317,
      "Ġmark": 3318,
      "Ġgir": 3319,
      "Ġadmit": 3320,
      "Ad": 3321,
      "Ġgrow": 3322,
      "Ġdesp": 3323,
      "Ġexample": 3324,
      "ca": 3325,
      "lievers": 3326,
      "Ġexpect": 3327,
      "Ġve": 3328,
      "Ġà¥ĺà¤¦à¤®": 3329,
      "Ġversion": 3330,
      "Ġguilty": 3331,
      "ident": 3332,
      "ĠSet": 3333,
      "ribution": 3334,
      "Ġobject": 3335,
      "Which": 3336,
      "uff": 3337,
      "Ġdisbelief": 3338,
      "IT": 3339,
      "Man": 3340,
      "ĠBl": 3341,
      "Ġconst": 3342,
      "Ġà¤¯à¤ķ": 3343,
      "Ġplugin": 3344,
      "ĠJudgment": 3345,
      "Ġà¤ªà¤°à¤¦": 3346,
      "him": 3347,
      "rab": 3348,
      "Ġfaithful": 3349,
      "Ġbefall": 3350,
      "Ġaware": 3351,
      "ories": 3352,
      "Ġcut": 3353,
      "Ġfield": 3354,
      "Ġpast": 3355,
      "Ġarrog": 3356,
      "frica": 3357,
      "Ġà¤«à¥Ľà¤²": 3358,
      "irt": 3359,
      "ety": 3360,
      "embr": 3361,
      "Ġà¤īà¤¤à¤°": 3362,
      "à¤ģ.": 3363,
      "ĠInd": 3364,
      "Ġmighty": 3365,
      "Ġapostles": 3366,
      "embrance": 3367,
      "outh": 3368,
      "cription": 3369,
      "Ġà¤¸à¤«à¤²à¤¤": 3370,
      "Ġapostle": 3371,
      "rate": 3372,
      "under": 3373,
      "pel": 3374,
      "BAR": 3375,
      "Ġlay": 3376,
      "Ġgrieve": 3377,
      "Enable": 3378,
      "Ġlosers": 3379,
      "ss": 3380,
      "ply": 3381,
      "cked": 3382,
      "à¤¸à¤®à¤Ŀ": 3383,
      "omin": 3384,
      "Ġturns": 3385,
      "à¤¿,": 3386,
      "Ġsends": 3387,
      "ĠPath": 3388,
      "Ġjoin": 3389,
      "Ġarchive": 3390,
      "Ġlawful": 3391,
      "Ġprostrate": 3392,
      "ister": 3393,
      "ung": 3394,
      "Ġwherein": 3395,
      "Ġhypocrites": 3396,
      "lytheists": 3397,
      "Ġdecl": 3398,
      "Ġspread": 3399,
      "Ġbus": 3400,
      "à¤ħà¤Ĺà¤²": 3401,
      "Ġyourself": 3402,
      "icked": 3403,
      "ĠApost": 3404,
      "Up": 3405,
      "Ġà¤ķà¤Ī": 3406,
      "ought": 3407,
      "Ġà¤ªà¤¥à¤Ń": 3408,
      "ĠAdd": 3409,
      "ails": 3410,
      "Ġoffer": 3411,
      "Ġincrease": 3412,
      "Sub": 3413,
      "rone": 3414,
      "Ġeff": 3415,
      "ĠKnower": 3416,
      "obey": 3417,
      "ĠSigns": 3418,
      "old": 3419,
      "Ġ8": 3420,
      "ises": 3421,
      "Ġforget": 3422,
      "Ġcopy": 3423,
      "ĠGN": 3424,
      "Ġdeal": 3425,
      "Ġwrongdoers": 3426,
      "Ġà¤ĩà¤®": 3427,
      "pro": 3428,
      "à¤¶à¥Ļà¤¬à¤°": 3429,
      "UR": 3430,
      "Ġdust": 3431,
      "Ġà¤Ĩà¤²": 3432,
      "Ġstatus": 3433,
      "Ġà¤¦à¤°à¤µ": 3434,
      "ĠApostle": 3435,
      "à¤Łà¤®": 3436,
      "à¥Ģà¤Ĥ!": 3437,
      "ĠID": 3438,
      "à¤°à¤ķà¤Ł": 3439,
      "Ġà¤īà¤ªà¤²à¤¬": 3440,
      "Ġvideo": 3441,
      "Ġà¤¸à¤°à¤¦": 3442,
      "Ġimport": 3443,
      "asts": 3444,
      "aun": 3445,
      "uses": 3446,
      "Ġovert": 3447,
      "IC": 3448,
      "Just": 3449,
      "Rec": 3450,
      "à¤°à¤ľ": 3451,
      "Ġabode": 3452,
      "à¥ĭà¤Ĥ!": 3453,
      "Ġà¤ħà¤ªà¤®": 3454,
      "Ġwalk": 3455,
      "Ġà¤ªà¤°à¤¸": 3456,
      "Ġsust": 3457,
      "ĠAdam": 3458,
      "cle": 3459,
      "body": 3460,
      "asks": 3461,
      "udio": 3462,
      "Ġhomes": 3463,
      "Ġokay": 3464,
      "Find": 3465,
      ")!": 3466,
      "Ġlimit": 3467,
      "ĠMusa": 3468,
      "Ġbit": 3469,
      "Ġmoney": 3470,
      "Ġrebe": 3471,
      "à¤¦à¤¯": 3472,
      "Ġliving": 3473,
      "Ġburden": 3474,
      "Ġpen": 3475,
      "à¤ľà¤¹à¤¨": 3476,
      "work": 3477,
      "bal": 3478,
      "Ġbig": 3479,
      "lock": 3480,
      "Ġdisobey": 3481,
      "ceive": 3482,
      "rigin": 3483,
      "Ġbacks": 3484,
      "Ġcattle": 3485,
      "Ġreckon": 3486,
      "Ġpal": 3487,
      "Ġjour": 3488,
      "ktop": 3489,
      "vil": 3490,
      "Ġcourse": 3491,
      "Ġinc": 3492,
      "20": 3493,
      "Sc": 3494,
      "Ġà¤¬à¤Łà¤¨": 3495,
      "à¤¬à¤°à¤¦à¤¸": 3496,
      "fort": 3497,
      "à¤īà¤¨à¤¸": 3498,
      "Ġà¤¹à¤¤": 3499,
      "vered": 3500,
      "ĠAr": 3501,
      "Ġbuild": 3502,
      "oice": 3503,
      "uta": 3504,
      "Will": 3505,
      "à¤Łà¤ķà¤°": 3506,
      "à¤īà¤ª": 3507,
      "Ġwhatsoever": 3508,
      "50": 3509,
      "Ġpure": 3510,
      "à¥Įà¤Ĥ": 3511,
      "Res": 3512,
      "Ġint": 3513,
      "Ġbrings": 3514,
      "Ġaf": 3515,
      "Ġsource": 3516,
      "à¥Ľà¤¦": 3517,
      "ĠSh": 3518,
      "Ġ20": 3519,
      "Ġoccur": 3520,
      "Ġwid": 3521,
      "Ġà¤ļà¤¢": 3522,
      "ĠWord": 3523,
      "Ġhasten": 3524,
      "Ġignor": 3525,
      "Ġgame": 3526,
      "Ġconfirm": 3527,
      "10": 3528,
      "Ġà¤¤à¤¸à¤¬": 3529,
      "à¤ħà¤¸": 3530,
      "but": 3531,
      "Ġsmall": 3532,
      "Ġreached": 3533,
      "Ġlater": 3534,
      "Ġdelete": 3535,
      "Ġreturns": 3536,
      "Ġrequest": 3537,
      "Ġsupported": 3538,
      "Ġforward": 3539,
      "Ġonce": 3540,
      "ney": 3541,
      "haps": 3542,
      "Ġboy": 3543,
      "000": 3544,
      "Ġimages": 3545,
      "Ġconfig": 3546,
      "Ġà¤Ĩà¤µà¤¶": 3547,
      "Ġpatience": 3548,
      "Ġbeaut": 3549,
      "Ġremo": 3550,
      "à¤ħà¤µ": 3551,
      "Ġseem": 3552,
      "icense": 3553,
      "ĠChrist": 3554,
      "ogn": 3555,
      "At": 3556,
      "Thus": 3557,
      "rest": 3558,
      "Ġred": 3559,
      "Ġfruits": 3560,
      "Ġplaced": 3561,
      "Ġtreat": 3562,
      "ences": 3563,
      "rap": 3564,
      "Ġchoose": 3565,
      "juta": 3566,
      "ron": 3567,
      "Ġà¤ªà¤ķà¥ľ": 3568,
      "Import": 3569,
      "Ġgranted": 3570,
      "à¥Ľà¥Ļ": 3571,
      "à¥ŀà¤¸": 3572,
      "à¤ªà¤£": 3573,
      "à¤°à¤«": 3574,
      "Ġreplied": 3575,
      "set": 3576,
      "oom": 3577,
      "Invalid": 3578,
      "Ġapart": 3579,
      "Ġtouch": 3580,
      "Europe": 3581,
      "knowing": 3582,
      "Ġà¤ĩà¤¨à¤¸": 3583,
      "Ġwisdom": 3584,
      "Ġbro": 3585,
      "Ġplot": 3586,
      "Ġsubject": 3587,
      "ero": 3588,
      "ison": 3589,
      "place": 3590,
      "Display": 3591,
      "sen": 3592,
      "ading": 3593,
      "Ġspeech": 3594,
      "Ġaccepted": 3595,
      "Ġinherit": 3596,
      "ze": 3597,
      "rew": 3598,
      "Ġcertificate": 3599,
      "Ġanim": 3600,
      "à¤ĺà¤°": 3601,
      "raw": 3602,
      "Ġsomeone": 3603,
      "Ġgather": 3604,
      "ades": 3605,
      "Gener": 3606,
      "rer": 3607,
      "hief": 3608,
      "lying": 3609,
      "à¤ĩà¤¤à¤¨": 3610,
      "Ġserve": 3611,
      "à¤ķà¤¤à¤®": 3612,
      "Ġdisg": 3613,
      "Ġobser": 3614,
      "land": 3615,
      "à¤²à¤¸": 3616,
      "à¤ĩà¤¸à¤¸": 3617,
      "ressed": 3618,
      "Ġenjoin": 3619,
      "ĠURL": 3620,
      "?'": 3621,
      "à¤«à¤°à¤®": 3622,
      "Ġwhole": 3623,
      "reme": 3624,
      "à¤ªà¥ľ": 3625,
      "Ġmult": 3626,
      "Ġdecre": 3627,
      "rences": 3628,
      "ruct": 3629,
      "ĠNew": 3630,
      "compass": 3631,
      "Ġpleased": 3632,
      "Nay": 3633,
      "nel": 3634,
      "à¤¤à¤ķà¤°": 3635,
      "ining": 3636,
      "amp": 3637,
      "ĠMon": 3638,
      "Ġdeb": 3639,
      "à¤īà¤¨à¤²": 3640,
      "Ġwarning": 3641,
      "ĠMuslims": 3642,
      "à¥ĩ?\"": 3643,
      "Le": 3644,
      "Ġpriv": 3645,
      "Ġspecified": 3646,
      "à¤¼-": 3647,
      "Ġexists": 3648,
      "ĠRight": 3649,
      "Ġargument": 3650,
      "uh": 3651,
      "Ġà¤ķà¤¶": 3652,
      "Ġà¤Ńà¤Ĺà¤µ": 3653,
      "Africa": 3654,
      "pir": 3655,
      "ony": 3656,
      "Ġdel": 3657,
      "olbar": 3658,
      "their": 3659,
      "Ġrepentance": 3660,
      "Ġdarkness": 3661,
      "Ġà¤ĩà¤°": 3662,
      "Ġhurt": 3663,
      "Ġ9": 3664,
      "Ġtaught": 3665,
      "Ġce": 3666,
      "weather": 3667,
      "Ġà¤®à¤¦à¤¦à¤Ĺ": 3668,
      "DAP": 3669,
      "One": 3670,
      "aving": 3671,
      "Ġpi": 3672,
      "ĠFir": 3673,
      "Ġrespect": 3674,
      "ĠNoble": 3675,
      "rect": 3676,
      "roud": 3677,
      "phan": 3678,
      "ising": 3679,
      "pping": 3680,
      "Ġsimil": 3681,
      "iod": 3682,
      "Ġ(.": 3683,
      "Ġfolk": 3684,
      "Ġafflict": 3685,
      "Ġ*": 3686,
      "à¤¾?\"": 3687,
      "Ġfont": 3688,
      "Ġà¤ļà¤°": 3689,
      "Ġpoor": 3690,
      "Take": 3691,
      "Ġ@": 3692,
      "Ġà¤ħà¤Ĺ": 3693,
      "à¤¡à¤²": 3694,
      "Ġann": 3695,
      "band": 3696,
      "Ġfeed": 3697,
      "raid": 3698,
      "Ġfair": 3699,
      "Ġbond": 3700,
      "Ġhus": 3701,
      "Ġlooking": 3702,
      "Remember": 3703,
      "à¤µà¤ª": 3704,
      "Ġfoot": 3705,
      "Ġjob": 3706,
      "ixed": 3707,
      "Ġsustenance": 3708,
      "xy": 3709,
      "ionate": 3710,
      "lobal": 3711,
      "Ġposition": 3712,
      "Ġchosen": 3713,
      "Default": 3714,
      "à¥ĩ...": 3715,
      "ĠLicense": 3716,
      "Ġspace": 3717,
      "velop": 3718,
      "Ġelse": 3719,
      "Ġà¤¦à¤°à¤ĸ": 3720,
      "no": 3721,
      "ĠGu": 3722,
      "Ind": 3723,
      "Qu": 3724,
      "-#-#-#-#": 3725,
      "Ġwaiting": 3726,
      "tain": 3727,
      "à¤Łà¤¤": 3728,
      "à¤ĩà¤ķ": 3729,
      "Ġsorry": 3730,
      "Ġutter": 3731,
      "Ġtimes": 3732,
      "ital": 3733,
      "Ġwitnesses": 3734,
      "most": 3735,
      "over": 3736,
      "head": 3737,
      "à¤ģ,": 3738,
      "ctions": 3739,
      "rypt": 3740,
      "':": 3741,
      "Ġtheirs": 3742,
      "Ġdear": 3743,
      "ĠJoseph": 3744,
      "Ġdrown": 3745,
      "Ġsecond": 3746,
      "ĠSha": 3747,
      "à¤Ĩà¤Ĺ": 3748,
      "ĠGener": 3749,
      "Ġrecite": 3750,
      "RE": 3751,
      "Sy": 3752,
      "alty": 3753,
      "cribed": 3754,
      "Ġprovide": 3755,
      "à¤łà¤¨": 3756,
      "Spe": 3757,
      "Ġhouses": 3758,
      "Ġà¤ĺà¤Łà¤¨": 3759,
      "Ġcontain": 3760,
      "Ġaccess": 3761,
      "oid": 3762,
      "Ġfab": 3763,
      "Ġcontrol": 3764,
      "SE": 3765,
      "eg": 3766,
      "Ġstead": 3767,
      "Tell": 3768,
      "Ġà¤ļà¥Ŀ": 3769,
      "Ġà¤ıà¤²": 3770,
      "Ġterrible": 3771,
      "eep": 3772,
      "Ġdelivered": 3773,
      "à¥ŀà¤°à¤®": 3774,
      "Ġrespite": 3775,
      "fast": 3776,
      "oured": 3777,
      "olom": 3778,
      "ttp": 3779,
      "hone": 3780,
      "Ġà¤Ĩà¤ªà¤¨": 3781,
      "Ġà¤«à¤Ł": 3782,
      "ĠEn": 3783,
      "ĠJesus": 3784,
      "Ġbene": 3785,
      "Ġtitle": 3786,
      "asting": 3787,
      "Ġ12": 3788,
      "Ġwhomsoever": 3789,
      "Ġforgot": 3790,
      "Ġgrateful": 3791,
      "Ġmaking": 3792,
      "sec": 3793,
      "ayer": 3794,
      "Ġà¤®à¤°à¤¨": 3795,
      "Ġnaught": 3796,
      "ĠThese": 3797,
      "Ġattach": 3798,
      "Ġbrothers": 3799,
      "Ġestablish": 3800,
      "hentication": 3801,
      "Ġthank": 3802,
      "Ġfeet": 3803,
      "Ġà¤¹à¤ľ": 3804,
      "Ġblessed": 3805,
      "Ġears": 3806,
      "Ġestablished": 3807,
      "Ġproud": 3808,
      "ceed": 3809,
      "ĠTham": 3810,
      "Ġfaithless": 3811,
      "Ġarrogant": 3812,
      "Ġafraid": 3813,
      "Ġliars": 3814,
      "ocation": 3815,
      "ification": 3816,
      "Ġwants": 3817,
      "cing": 3818,
      "Ġpoint": 3819,
      "Ġaught": 3820,
      "à¤ĸà¤²": 3821,
      "Ġà¤¸à¤®à¤¸": 3822,
      "Ġforbid": 3823,
      "aith": 3824,
      "Ġworlds": 3825,
      "Ġdeterm": 3826,
      "ued": 3827,
      "edient": 3828,
      "à¤ıà¤¨": 3829,
      "othe": 3830,
      "à¥Īà¤Ĥ!": 3831,
      "à¤ĩà¤¡": 3832,
      "ĠTheir": 3833,
      "Ġyours": 3834,
      "Ġvirt": 3835,
      "Ġblame": 3836,
      "Ġcoll": 3837,
      "Ġinstall": 3838,
      "Ġfruit": 3839,
      "Ġhusband": 3840,
      "ran": 3841,
      "à¤¹à¤¦": 3842,
      "Ġbow": 3843,
      "Ġcard": 3844,
      "ift": 3845,
      "Ġjustice": 3846,
      "Ġopened": 3847,
      "ĠImage": 3848,
      "App": 3849,
      "Wor": 3850,
      "cast": 3851,
      "Ġearn": 3852,
      "From": 3853,
      "amed": 3854,
      "Here": 3855,
      "Would": 3856,
      "ĠJews": 3857,
      "Ġfavor": 3858,
      "à¤ķà¤²à¤¤": 3859,
      "oriz": 3860,
      "Ġcover": 3861,
      "Ġeditor": 3862,
      "hered": 3863,
      "Ġà¤ªà¤²": 3864,
      "ĠNot": 3865,
      "Ġshown": 3866,
      "Ġmyself": 3867,
      "Therefore": 3868,
      "With": 3869,
      "awn": 3870,
      "Except": 3871,
      "Ġintercess": 3872,
      "mp": 3873,
      "Ġage": 3874,
      "Ġdefe": 3875,
      "Ġsil": 3876,
      "Ġ\"{": 3877,
      "Ġlanguage": 3878,
      "Ġà¤¬à¤¹à¤¨": 3879,
      "Ġappointment": 3880,
      ").\"": 3881,
      "Ġloss": 3882,
      "Ġblood": 3883,
      "fic": 3884,
      "isc": 3885,
      "ilter": 3886,
      "ĠEdit": 3887,
      "Ġclou": 3888,
      "à¤¸à¤µà¤°": 3889,
      "Ġwicked": 3890,
      "Ġnames": 3891,
      "Ġà¤ªà¤°à¤µ": 3892,
      "Ġproble": 3893,
      "Ġdescend": 3894,
      "Ġ:": 3895,
      "Their": 3896,
      "ately": 3897,
      "Ġà¤ĺà¤Ł": 3898,
      "à¤ŀà¤¤": 3899,
      "Ġarri": 3900,
      "date": 3901,
      "onder": 3902,
      "hoto": 3903,
      "ries": 3904,
      "à¤ĩà¤¬": 3905,
      "Ġraise": 3906,
      "Ġà¤Ńà¤¡": 3907,
      "utes": 3908,
      "Ġremembrance": 3909,
      "Ġwanted": 3910,
      "ID": 3911,
      "Lord": 3912,
      "Ġrecited": 3913,
      "Ġprayers": 3914,
      "Good": 3915,
      "Ġglor": 3916,
      "Yet": 3917,
      "à¤¹à¤Ł": 3918,
      "Ġà¤īà¥ľ": 3919,
      "Ġà¥Ľà¤¬à¤°à¤¦à¤¸": 3920,
      "ĠOr": 3921,
      "Ġà¤Ķà¤ľ": 3922,
      "Ġassign": 3923,
      "forgiving": 3924,
      "dy": 3925,
      "go": 3926,
      "Peace": 3927,
      "View": 3928,
      "à¤°à¤¸à¤¨": 3929,
      "cape": 3930,
      "Ġcou": 3931,
      "ĠSer": 3932,
      "ardon": 3933,
      "Ġready": 3934,
      "Ġevidence": 3935,
      "Ar": 3936,
      "CH": 3937,
      "ĠHimself": 3938,
      "Ġadmonition": 3939,
      "Ġdispute": 3940,
      "wit": 3941,
      "Ġsettings": 3942,
      "Ġenemies": 3943,
      "59": 3944,
      "OME": 3945,
      "ott": 3946,
      "Ġà¤īà¤ľ": 3947,
      "ĠMr": 3948,
      "Ġdeleted": 3949,
      "Ġheav": 3950,
      "Ġà¤®à¥Ľà¤¬": 3951,
      "GH": 3952,
      "à¤¨à¤¬": 3953,
      "Ġorphan": 3954,
      "hank": 3955,
      "ĠYet": 3956,
      "Mess": 3957,
      "Ġhaply": 3958,
      "Ġunderstanding": 3959,
      "à¤ľà¤µ": 3960,
      "ury": 3961,
      "Woe": 3962,
      "fect": 3963,
      "Ġ>": 3964,
      "iding": 3965,
      "Ġmemo": 3966,
      "UN": 3967,
      "Ġà¤¨à¥Ľà¤¦": 3968,
      "Ġprin": 3969,
      "brahim": 3970,
      "Ġhumili": 3971,
      "oices": 3972,
      "Ġpane": 3973,
      "ady": 3974,
      "à¤Ńà¤°": 3975,
      "ĠContact": 3976,
      "âĢĿ;": 3977,
      "Ġemail": 3978,
      "Even": 3979,
      "Ġstory": 3980,
      "board": 3981,
      "ST": 3982,
      "vous": 3983,
      "Ġà¤¹à¤¡": 3984,
      "Ġà¤ħà¤¸à¤®à¤°": 3985,
      "aters": 3986,
      "Ġled": 3987,
      "Ġhour": 3988,
      "abled": 3989,
      "Ġtransl": 3990,
      "Ġchanged": 3991,
      "Ġinvent": 3992,
      "Cho": 3993,
      "por": 3994,
      "Ġcurse": 3995,
      "ĠÂ": 3996,
      "Ġsepar": 3997,
      "Ġabund": 3998,
      "Ġrecogn": 3999,
      "Believers": 4000,
      "like": 4001,
      "ĠFiles": 4002,
      "they": 4003,
      "Ġroom": 4004,
      "Ġfabric": 4005,
      "vin": 4006,
      "Ġtong": 4007,
      "Ġà¤ĩà¤¸à¤ªà¤°": 4008,
      "earing": 4009,
      "Ġkept": 4010,
      "ubs": 4011,
      "Ġlocal": 4012,
      "Ġjourney": 4013,
      "Ġbeneath": 4014,
      "uous": 4015,
      "ousand": 4016,
      "ruly": 4017,
      "ross": 4018,
      "imum": 4019,
      "Ġbeha": 4020,
      "etwork": 4021,
      "ĠMercy": 4022,
      "à¤¸à¤¬à¤ķ": 4023,
      "ground": 4024,
      "Ġdoom": 4025,
      "Ġà¥Ľà¤¬": 4026,
      "Ġtaking": 4027,
      "Ġfunction": 4028,
      "ĠHouse": 4029,
      "à¤¾à¤ģ)": 4030,
      "ertainly": 4031,
      "à¤ĸà¤ķà¤°": 4032,
      "à¤īà¤ľ": 4033,
      "tered": 4034,
      "Ġseeking": 4035,
      "Ġmonths": 4036,
      "Ġawait": 4037,
      "Ġà¤ĩà¤¬à¤°à¤¤": 4038,
      "llent": 4039,
      "orah": 4040,
      "arm": 4041,
      "Ġconsider": 4042,
      "Ġfucking": 4043,
      "à¤ķà¥ľ": 4044,
      "Ġpack": 4045,
      "any": 4046,
      "une": 4047,
      "Ġunseen": 4048,
      "ĠâĢľ%": 4049,
      "AD": 4050,
      "May": 4051,
      "Ġà¤ķà¤°à¤®": 4052,
      "Ġdream": 4053,
      "Ġcreatures": 4054,
      "Ġcolumn": 4055,
      "osit": 4056,
      "ecause": 4057,
      "kes": 4058,
      "sh": 4059,
      "à¤¬à¤µ": 4060,
      "Ġflo": 4061,
      "ĠOft": 4062,
      "Ġapplication": 4063,
      "irectory": 4064,
      "Ġcarry": 4065,
      "Ġfemale": 4066,
      "Ġ`": 4067,
      "à¤ĩà¤®": 4068,
      "Ġanci": 4069,
      "aby": 4070,
      "Ġdoesn": 4071,
      "Ġdestination": 4072,
      "rite": 4073,
      "alog": 4074,
      "Ġgenerations": 4075,
      "lt": 4076,
      "Ġprocess": 4077,
      "Ġungr": 4078,
      "Ġlocation": 4079,
      "Print": 4080,
      "Ġà¤®à¥ļ": 4081,
      "Ġà¤µà¤ļà¤¨": 4082,
      "à¤Ĩà¤¯": 4083,
      "assword": 4084,
      "Ġresult": 4085,
      "Ġcharact": 4086,
      "upon": 4087,
      "Ġdraw": 4088,
      "Am": 4089,
      "Ġà¤¬à¤¹à¤°": 4090,
      "Ġà¤ĸà¤ľ": 4091,
      "LE": 4092,
      "lex": 4093,
      "ĠDVD": 4094,
      "Ġà¤¬à¤Ĺ": 4095,
      "ĠAre": 4096,
      "Cl": 4097,
      "ĠSc": 4098,
      "iling": 4099,
      "hammed": 4100,
      "Ġidols": 4101,
      "Image": 4102,
      "Ġmid": 4103,
      "ĠSuch": 4104,
      "Ġcalls": 4105,
      "ĠAddress": 4106,
      "Mail": 4107,
      "Ġmed": 4108,
      "Ġpost": 4109,
      "Ġstore": 4110,
      "Ġknoweth": 4111,
      "Ġcondition": 4112,
      "Ġungrateful": 4113,
      "onse": 4114,
      "Ġgat": 4115,
      "Ġthousand": 4116,
      "ĠWhy": 4117,
      "Ġcharity": 4118,
      "Ġsinners": 4119,
      "ollow": 4120,
      "à¤²à¤¯": 4121,
      "Ġtarget": 4122,
      "à¥Ģà¤Ĥ?": 4123,
      "Ġà¤ĩà¤¤à¤°": 4124,
      "Ġlow": 4125,
      "roll": 4126,
      "Ġhelped": 4127,
      "IME": 4128,
      "der": 4129,
      "fearing": 4130,
      "à¤¨à¤Ī": 4131,
      "Ġshit": 4132,
      "Ġrather": 4133,
      "Ġclean": 4134,
      "unt": 4135,
      "ina": 4136,
      "ccount": 4137,
      "ribute": 4138,
      "Ġvictory": 4139,
      "nal": 4140,
      "à¤¬à¥ľ": 4141,
      "cial": 4142,
      "à¥Ĥà¤Ĥ.": 4143,
      "Ġsending": 4144,
      "Only": 4145,
      "Ġidol": 4146,
      "RO": 4147,
      "yle": 4148,
      "Ġà¤¹à¤®à¤ªà¤°": 4149,
      "Ġwishes": 4150,
      "Ġà¤ľà¥Ľ": 4151,
      "à¤ªà¤¹": 4152,
      "Ġ(*": 4153,
      "à¤µà¤µ": 4154,
      "els": 4155,
      "Ġà¤®à¤¹à¤«": 4156,
      "Me": 4157,
      "tr": 4158,
      "ĠAy": 4159,
      "aware": 4160,
      "Comp": 4161,
      "Ġreckoning": 4162,
      "gu": 4163,
      "Ġcried": 4164,
      "Ġà¤ħà¤²à¤¬à¤¤": 4165,
      "ĠDes": 4166,
      "Ġdisput": 4167,
      "Ab": 4168,
      "Ġthir": 4169,
      "Ġsix": 4170,
      "Ġà¤ħà¤°à¤¬": 4171,
      "à¤ļà¤ķ": 4172,
      "Ġprefer": 4173,
      "200": 4174,
      "oll": 4175,
      "Ġlink": 4176,
      "Ġlabel": 4177,
      "Ġà¥Ľà¤²": 4178,
      "doing": 4179,
      "ĠExalted": 4180,
      "Ġele": 4181,
      "RAN": 4182,
      "ency": 4183,
      "ĠAware": 4184,
      "igr": 4185,
      "Ġvi": 4186,
      "Ġpreview": 4187,
      "Ġ#-#-#-#-#": 4188,
      "Ġproperty": 4189,
      "Call": 4190,
      "Ġpious": 4191,
      "Ġshort": 4192,
      "Ġevening": 4193,
      "Ġà¤®à¤°à¤¤": 4194,
      "à¤ĺà¤¨": 4195,
      "Ġhelper": 4196,
      "Ġdaughters": 4197,
      "60": 4198,
      "change": 4199,
      "Ġà¤ķà¤¤à¤°": 4200,
      "à¤«à¤ķ": 4201,
      "ĠYOU": 4202,
      "Sp": 4203,
      "ny": 4204,
      "uf": 4205,
      "your": 4206,
      "Ġà¤®à¤¸à¤²": 4207,
      "à¤ĩà¤ª": 4208,
      "Ġsteadfast": 4209,
      "Ġà¤ķà¤¡": 4210,
      "enef": 4211,
      "Ġgirl": 4212,
      "ĠWay": 4213,
      "Ġthereby": 4214,
      "ĠNay": 4215,
      "when": 4216,
      "ĠIbrahim": 4217,
      "Ġcontent": 4218,
      "}\"": 4219,
      "Ġleg": 4220,
      "ava": 4221,
      "Ġkingdom": 4222,
      "Ġoaths": 4223,
      "omatically": 4224,
      "Ġà¤Ĩà¤¬": 4225,
      "ĠGarden": 4226,
      "Ġdeaf": 4227,
      "Ġgathered": 4228,
      "mar": 4229,
      "à¤°à¤ª": 4230,
      "Ġà¤®à¤ļ": 4231,
      "Ġà¤Ĩà¥Ľà¤®": 4232,
      "à¤ĸà¤°": 4233,
      "ĠPublic": 4234,
      "Ġmarry": 4235,
      "Ġà¤¤à¤ĸ": 4236,
      "Ġtop": 4237,
      "Ġportion": 4238,
      "Ġsleep": 4239,
      "Bl": 4240,
      "where": 4241,
      "Ġi": 4242,
      "Ġà¤ħà¤Ĺà¤°à¤ļ": 4243,
      "Ġrighteousness": 4244,
      "Ġpresence": 4245,
      "ĠHTML": 4246,
      "Because": 4247,
      "app": 4248,
      "ray": 4249,
      "ĠGl": 4250,
      "ables": 4251,
      "Ġstrength": 4252,
      "ĠSettings": 4253,
      "lier": 4254,
      "Ġsecurity": 4255,
      "Ġdeliver": 4256,
      "Ġcommunic": 4257,
      "Mo": 4258,
      "à¤¬à¤¡": 4259,
      "Ġabs": 4260,
      "Ġways": 4261,
      "Ġclay": 4262,
      "val": 4263,
      "à¥ĭ-": 4264,
      "Ġà¤¸à¤ª": 4265,
      "ename": 4266,
      "orted": 4267,
      "oly": 4268,
      "Ġentered": 4269,
      "Folder": 4270,
      "Ġsud": 4271,
      "Ġfilter": 4272,
      "saying": 4273,
      "à¥Ģ;": 4274,
      "ĠShe": 4275,
      "icent": 4276,
      "rees": 4277,
      "itional": 4278,
      "Ġà¤¬à¤¦à¤²à¤¨": 4279,
      "Ġremind": 4280,
      "Ġsche": 4281,
      "ĠGeneral": 4282,
      "acific": 4283,
      "Ġneeds": 4284,
      "Ġassured": 4285,
      "Ġremoved": 4286,
      "Ġsudden": 4287,
      "rance": 4288,
      "à¤¾'": 4289,
      "ingly": 4290,
      "Ġrej": 4291,
      "Ġservice": 4292,
      "ee": 4293,
      "Ġstru": 4294,
      "à¤¸à¤®à¤¯": 4295,
      "Ġà¤ķà¤®à¤ľ": 4296,
      "Ġworking": 4297,
      "?âĢĻ": 4298,
      "Des": 4299,
      "list": 4300,
      "Per": 4301,
      "Ġà¤²à¤¶": 4302,
      "Ġchief": 4303,
      "iron": 4304,
      "Ġprevent": 4305,
      "indows": 4306,
      "Ġtrial": 4307,
      "Ġburning": 4308,
      "Ġsincere": 4309,
      "AL": 4310,
      "Cont": 4311,
      "Ġfill": 4312,
      "Ġfine": 4313,
      "Ġwrath": 4314,
      "ĠLet": 4315,
      "Ġbelow": 4316,
      "Config": 4317,
      "ISO": 4318,
      "Ġà¤ħà¤Ł": 4319,
      "atab": 4320,
      "oser": 4321,
      "à¤īà¤¨à¤®": 4322,
      "Choose": 4323,
      "Ġà¤¤à¤¨": 4324,
      "Ġbody": 4325,
      "Ġà¤ĺà¤°à¤µ": 4326,
      "mor": 4327,
      "yond": 4328,
      "Hell": 4329,
      "ĠThamud": 4330,
      "à¤ķà¤Ń": 4331,
      "Ġsick": 4332,
      "orm": 4333,
      "ags": 4334,
      "ruction": 4335,
      "Ġprevious": 4336,
      "Ġstanding": 4337,
      "Disable": 4338,
      "Such": 4339,
      "Ġoptions": 4340,
      "ites": 4341,
      "Ġmock": 4342,
      "Of": 4343,
      "time": 4344,
      "Ġsession": 4345,
      "Ġorg": 4346,
      "Ġexec": 4347,
      "airs": 4348,
      "Ġà¤µà¥ļ": 4349,
      "à¥Īà¤Ĥ...": 4350,
      "Ġsafe": 4351,
      "ĠBest": 4352,
      "Ġloves": 4353,
      "Ġoffline": 4354,
      "eneficent": 4355,
      "Ġmom": 4356,
      "à¤Ĩà¤¦à¤®": 4357,
      "à¤®à¤¦à¤¦": 4358,
      "otheism": 4359,
      "enter": 4360,
      "ality": 4361,
      "See": 4362,
      "Ġwritten": 4363,
      "Ġexcellent": 4364,
      "bl": 4365,
      "Ġtried": 4366,
      "Ġdrowned": 4367,
      "Shall": 4368,
      "yr": 4369,
      "à¥Ģ'": 4370,
      "à¤¸à¤°à¤¤": 4371,
      "Ġà¤ĩà¤ķ": 4372,
      "hie": 4373,
      "Ġwhereas": 4374,
      "Ġwarned": 4375,
      "Ġpolytheists": 4376,
      "Ġpleasure": 4377,
      "Ġ<": 4378,
      "Ġcap": 4379,
      "arge": 4380,
      "rim": 4381,
      "Ġpleases": 4382,
      "à¤ģà¥¤": 4383,
      "version": 4384,
      "Unknown": 4385,
      "Ġviol": 4386,
      "User": 4387,
      "Ġten": 4388,
      "à¤¯à¤µà¤¸": 4389,
      "Ġbelied": 4390,
      "wered": 4391,
      "Ġlog": 4392,
      "Ġcontains": 4393,
      "Ġreflect": 4394,
      "Ġdrag": 4395,
      "Ġdisgrace": 4396,
      "Close": 4397,
      "Pacific": 4398,
      "Ġguy": 4399,
      "olomon": 4400,
      "SA": 4401,
      "Ġeng": 4402,
      "Ġtable": 4403,
      "again": 4404,
      "Ġordained": 4405,
      "Ġdevice": 4406,
      "Ġsufficient": 4407,
      "88": 4408,
      "inal": 4409,
      "Ġdrop": 4410,
      "Ġà¤Ĩà¤īà¤Ł": 4411,
      "Ġeveryone": 4412,
      "lit": 4413,
      "merciful": 4414,
      "Ġ$": 4415,
      "Ġbeyond": 4416,
      "ĠGo": 4417,
      "text": 4418,
      "à¥Ģà¥¤\"": 4419,
      "Ġteach": 4420,
      "Ġhearing": 4421,
      "Ġproduce": 4422,
      "ĠMonotheism": 4423,
      "ik": 4424,
      "Ġà¤ĸà¤¤": 4425,
      "though": 4426,
      "othing": 4427,
      "Ġtrack": 4428,
      "fo": 4429,
      "Ġgetting": 4430,
      "Ġtransgressors": 4431,
      "atabase": 4432,
      "à¤ķà¤²à¤¨": 4433,
      "era": 4434,
      "lead": 4435,
      "Ġproper": 4436,
      "formation": 4437,
      "Ġinvoke": 4438,
      "Ġà¤¸à¤«à¤²": 4439,
      "Ġdecreed": 4440,
      "you": 4441,
      "Ġà¤ľà¤¤": 4442,
      "aron": 4443,
      "lice": 4444,
      "à¤ĩà¤ľ": 4445,
      "Ġval": 4446,
      "Ġà¤ıà¤¹à¤ķ": 4447,
      "Ġguardian": 4448,
      "spring": 4449,
      "Ġà¤¬à¤ķà¤µ": 4450,
      "lasting": 4451,
      "ĠLot": 4452,
      "Make": 4453,
      "Ġwoe": 4454,
      "Ġà¤¬à¤°à¤ķà¤¤": 4455,
      "Ġà¤ĩà¤¸à¤¹": 4456,
      "Ġperiod": 4457,
      "Ġattack": 4458,
      "Ġinside": 4459,
      "ategory": 4460,
      "ama": 4461,
      "resh": 4462,
      "Ġvalid": 4463,
      "Ġslaves": 4464,
      "Ġbeside": 4465,
      "Ġhardship": 4466,
      "Ġic": 4467,
      "à¥ĭ?\"": 4468,
      "Ġà¤ħà¤¶": 4469,
      "Ġonto": 4470,
      "Ġguys": 4471,
      "Ġwall": 4472,
      "Ġkid": 4473,
      "Ġweek": 4474,
      "Ġalive": 4475,
      "Br": 4476,
      "Click": 4477,
      "lif": 4478,
      "à¤¯à¤¬": 4479,
      "Ġà¤¤à¤¦à¤¬": 4480,
      "Ġformer": 4481,
      "Ġdisob": 4482,
      "Ġtakes": 4483,
      "ĠEver": 4484,
      "Ġfulfilled": 4485,
      "}'": 4486,
      "rem": 4487,
      "lling": 4488,
      "ĠFaith": 4489,
      "rabic": 4490,
      "ounds": 4491,
      "à¥ľà¤ķ": 4492,
      "Ġhappen": 4493,
      "à¤¶à¤®à¤¨": 4494,
      "let": 4495,
      "à¤īà¤¤": 4496,
      "ĠGra": 4497,
      "ĠBy": 4498,
      "Ġinsp": 4499,
      "Ġeffect": 4500,
      "02": 4501,
      "OT": 4502,
      "Run": 4503,
      "Ġwin": 4504,
      "Ġà¤Ĺà¤¤": 4505,
      "uted": 4506,
      "Ġseal": 4507,
      "Ġremote": 4508,
      "Ġdecree": 4509,
      "vey": 4510,
      "Ġà¤Ĺà¤²": 4511,
      "alt": 4512,
      "à¤¨à¤¤à¤®": 4513,
      "Ġfavours": 4514,
      "ĠWorld": 4515,
      "Ġcontinue": 4516,
      "ĠGNU": 4517,
      "11": 4518,
      "à¤ªà¤²": 4519,
      "Ġcode": 4520,
      "à¥Īà¤Ĥà¥¤\"": 4521,
      "nment": 4522,
      "à¤¨à¤ı": 4523,
      "Ġescape": 4524,
      "Ġassuredly": 4525,
      "Ġtab": 4526,
      "à¥Ģ...": 4527,
      "Ġà¤¬à¤¨à¤ķà¤°": 4528,
      "Ġlives": 4529,
      "Ġneg": 4530,
      "Bring": 4531,
      "à¤µà¤Ł": 4532,
      "Ġcance": 4533,
      "Ġreply": 4534,
      "à¤Ĭà¤¦": 4535,
      "Ġmischi": 4536,
      "Ġtrying": 4537,
      "Ġsat": 4538,
      "à¥ľà¤¤": 4539,
      "ĠIslamic": 4540,
      "Ġappear": 4541,
      "gle": 4542,
      "ouble": 4543,
      "erve": 4544,
      "Ġclick": 4545,
      "Ġproclaim": 4546,
      "Ġlevel": 4547,
      "Ġseeing": 4548,
      "Ġran": 4549,
      "Ġpurp": 4550,
      "Ġcorruption": 4551,
      "Ġproblem": 4552,
      "Mark": 4553,
      "Wise": 4554,
      "Ġà¤®à¤ľà¤¬": 4555,
      "à¤ıà¤¬": 4556,
      "Ġpardon": 4557,
      "athy": 4558,
      "ases": 4559,
      "ĠGlobal": 4560,
      "ropert": 4561,
      "Ġworldly": 4562,
      "Ġstray": 4563,
      "Ġaffairs": 4564,
      "Ġoperation": 4565,
      "orizont": 4566,
      "Wait": 4567,
      "à¤¨à¤ľ": 4568,
      "à¤¤à¤¯à¤¶": 4569,
      "Ġà¤¦à¤«": 4570,
      "Ġfollows": 4571,
      "Whoever": 4572,
      "Type": 4573,
      "à¤¸à¤ĸ": 4574,
      "Ġscript": 4575,
      "Ġorigin": 4576,
      "ĠHave": 4577,
      "Ġcalling": 4578,
      "Ġretribution": 4579,
      "ubl": 4580,
      "Ġrebell": 4581,
      "à¤ĩà¤µ": 4582,
      "ĠSearch": 4583,
      "Ġpros": 4584,
      "à¤¤à¤°à¤£": 4585,
      "Ġcontents": 4586,
      "CD": 4587,
      "Ġà¤ħà¤¸à¤²": 4588,
      "lieve": 4589,
      "Ġstars": 4590,
      "Ġrequired": 4591,
      "ium": 4592,
      "Ġmenu": 4593,
      "acob": 4594,
      "à¤¨à¤ķà¤°": 4595,
      "Ġà¤ļà¤®à¤ķ": 4596,
      "ĠCl": 4597,
      "Stop": 4598,
      "ĠSee": 4599,
      "Ġhappened": 4600,
      "Ġproofs": 4601,
      "ficult": 4602,
      "iers": 4603,
      "Ġgain": 4604,
      "Ġthreat": 4605,
      "à¤łà¤Ń": 4606,
      "Help": 4607,
      "Ġsetting": 4608,
      "Ġresponse": 4609,
      "Ġworshipped": 4610,
      "Ġships": 4611,
      "ats": 4612,
      "Ġgarden": 4613,
      "Ġà¤ļà¤¶": 4614,
      "Ġà¤¦à¤°à¤Ĺ": 4615,
      "ĠMohammed": 4616,
      "!âĢĻ": 4617,
      "Give": 4618,
      "ĠScreen": 4619,
      "Ġkinds": 4620,
      "ĠChristians": 4621,
      "side": 4622,
      "Ġ=": 4623,
      "hest": 4624,
      "idered": 4625,
      "Out": 4626,
      "SI": 4627,
      "Time": 4628,
      "ĠâĻª": 4629,
      "Ġbones": 4630,
      "hile": 4631,
      "Group": 4632,
      "Other": 4633,
      "Ġlau": 4634,
      "Ġstring": 4635,
      "Ġbelief": 4636,
      "ĠFree": 4637,
      "Ġvain": 4638,
      "Down": 4639,
      "à¤¨à¤¶": 4640,
      "Ġrev": 4641,
      "Ġund": 4642,
      "à¤ħà¤ķ": 4643,
      "Ġneedy": 4644,
      "ugins": 4645,
      "Ġquick": 4646,
      "Hide": 4647,
      "face": 4648,
      "Ġaudio": 4649,
      "Ġcove": 4650,
      "à¤·à¤¤": 4651,
      "Ġsees": 4652,
      "Ġà¤®à¤¹à¤¸": 4653,
      "Ġconsidered": 4654,
      "Ġanswered": 4655,
      "Ġbirth": 4656,
      "retc": 4657,
      "à¤Ľà¤¨": 4658,
      "rief": 4659,
      "Ġsoft": 4660,
      "Clear": 4661,
      "uss": 4662,
      "ĠKing": 4663,
      "ĠThrone": 4664,
      "à¥ĭ...": 4665,
      "Ġwilt": 4666,
      "Ġthrow": 4667,
      "kend": 4668,
      "à¥ŀà¤°": 4669,
      "eps": 4670,
      "Ġfell": 4671,
      "LA": 4672,
      "lip": 4673,
      "Ġblog": 4674,
      "Ġregarding": 4675,
      "Ġbeautiful": 4676,
      "Pharaoh": 4677,
      "mat": 4678,
      "upp": 4679,
      "à¤Ĩà¤µ": 4680,
      "Ġgoes": 4681,
      "Ġbelieves": 4682,
      "ĠVoices": 4683,
      "mark": 4684,
      "à¤¤à¥Ľ": 4685,
      "Ġamongst": 4686,
      "à¤ĺà¤Łà¤¨": 4687,
      "worthy": 4688,
      "off": 4689,
      "Ġà¤Ĺà¤¨": 4690,
      "Ġthereafter": 4691,
      "Evolution": 4692,
      "Text": 4693,
      "uc": 4694,
      "à¤¸à¤¦": 4695,
      "Ġdepart": 4696,
      "Keep": 4697,
      "à¤²à¤¦": 4698,
      "Ġmir": 4699,
      "Ġreplace": 4700,
      "Ġsignature": 4701,
      "Right": 4702,
      "ule": 4703,
      "Ġthr": 4704,
      "ĠPre": 4705,
      "Ġhist": 4706,
      "ofs": 4707,
      "Ġtwain": 4708,
      "Ġoffspring": 4709,
      "Ġclaim": 4710,
      "à¤ķà¤ħà¤ª": 4711,
      "Ġà¤®à¤¹à¤¤": 4712,
      "Ġà¤īà¤Ĺ": 4713,
      "Ġà¥¤": 4714,
      "Ġà¤«à¤¸": 4715,
      "ternal": 4716,
      "à¤¨à¤ªà¤°": 4717,
      "Ġà¤Ĺà¤¹à¤°": 4718,
      "ĠColor": 4719,
      "à¥ŀà¤ķ": 4720,
      "Ġbreasts": 4721,
      "Ġgrievous": 4722,
      "Change": 4723,
      "à¥Ľà¤¬": 4724,
      "ests": 4725,
      "ĠOptions": 4726,
      "à¥Ļà¤¤": 4727,
      "Ġdifficult": 4728,
      "Ġinfide": 4729,
      "Ġcompany": 4730,
      "Ġhosts": 4731,
      "Back": 4732,
      "Ġmad": 4733,
      "à¤Īà¤¯": 4734,
      "amn": 4735,
      "à¤Ŀà¤ªà¤°": 4736,
      "Ġà¥Ľà¤ķ": 4737,
      "à¥Ļà¤²": 4738,
      "OM": 4739,
      "Ġtasks": 4740,
      "ics": 4741,
      "Ġcauses": 4742,
      "Ġdivor": 4743,
      "Ġcommunity": 4744,
      "Ġwidth": 4745,
      ";{": 4746,
      "Has": 4747,
      "uct": 4748,
      "Ġ]": 4749,
      "edience": 4750,
      "Ġcra": 4751,
      "Ġease": 4752,
      "this": 4753,
      "ache": 4754,
      "Ġperhaps": 4755,
      "Ġwonder": 4756,
      "Ġweight": 4757,
      "Ġselection": 4758,
      "Anjuta": 4759,
      "Max": 4760,
      "Ġà¤®à¤¶": 4761,
      "Ġà¤Ĩà¤ķà¤°": 4762,
      "asero": 4763,
      "Ġbeliever": 4764,
      "Ġdied": 4765,
      "Ġdialog": 4766,
      "Ġcontacts": 4767,
      "ibility": 4768,
      "Bus": 4769,
      "reak": 4770,
      "ĠApp": 4771,
      "à¤¹à¤°à¤£": 4772,
      "ĠRec": 4773,
      "Ġencompass": 4774,
      "Ġhappy": 4775,
      "aff": 4776,
      "à¥Ī-": 4777,
      "API": 4778,
      "à¤¶à¤¤": 4779,
      "oft": 4780,
      "Ġjudgement": 4781,
      "Ġmischief": 4782,
      "those": 4783,
      "Ġsn": 4784,
      "Ġinha": 4785,
      "Ġbecom": 4786,
      "Ġspades": 4787,
      "Ġrespons": 4788,
      "Ġbusiness": 4789,
      "Ġconfiguration": 4790,
      "Ġsurre": 4791,
      "à¤ªà¤¡": 4792,
      "Ġà¤ıà¤®": 4793,
      "Ġascribe": 4794,
      "Ġexalted": 4795,
      "ression": 4796,
      "eft": 4797,
      "ĠProject": 4798,
      "Ġmouth": 4799,
      "omet": 4800,
      "riage": 4801,
      "Ġdevot": 4802,
      "undred": 4803,
      "Ġheavy": 4804,
      "30": 4805,
      "à¤¾à¤ĥ": 4806,
      "eness": 4807,
      "à¤Ĩà¤īà¤Ł": 4808,
      "Ġevild": 4809,
      "Ġà¤ķà¤®à¤¬à¤ĸ": 4810,
      "ĠKDE": 4811,
      "Ġperfect": 4812,
      "Ġevildo": 4813,
      "color": 4814,
      "ĠRep": 4815,
      "Ins": 4816,
      "HT": 4817,
      "Prophet": 4818,
      "Ġwhite": 4819,
      "Ġà¤īà¤Ń": 4820,
      "Ġpress": 4821,
      "Ġà¤ĩà¤ĸ": 4822,
      "Ġsacri": 4823,
      "Ġmanner": 4824,
      "ples": 4825,
      "à¤ĳà¤«": 4826,
      "roperties": 4827,
      "Ġfault": 4828,
      "Ġstarted": 4829,
      "Ġstrive": 4830,
      "itable": 4831,
      "Ġyoung": 4832,
      "Ġcol": 4833,
      "Ġà¤Ĺà¤£à¤¨": 4834,
      "ĠPage": 4835,
      "Ġtalking": 4836,
      "ottom": 4837,
      "nam": 4838,
      "à¤¯à¥Ľ": 4839,
      "Ġpop": 4840,
      "ĠHome": 4841,
      "ĠOut": 4842,
      "ĠURI": 4843,
      "Ġenjoyment": 4844,
      "Ġvalues": 4845,
      "ding": 4846,
      "net": 4847,
      "Ġbegin": 4848,
      "ĠWith": 4849,
      "osque": 4850,
      "there": 4851,
      "Ġturning": 4852,
      "Ġdiam": 4853,
      "Ġfighting": 4854,
      "Gu": 4855,
      "Tog": 4856,
      "à¤ľà¤°à¤¤": 4857,
      "à¤£à¤¯": 4858,
      "Does": 4859,
      "Ġclearly": 4860,
      "Ġcompanions": 4861,
      "Generic": 4862,
      "Date": 4863,
      "Like": 4864,
      "Ġwage": 4865,
      "ĠGreat": 4866,
      "Ġwhenever": 4867,
      "Ġblack": 4868,
      "brary": 4869,
      "gard": 4870,
      "à¤ħà¤¯": 4871,
      "Ġà¤¦à¤°à¤ľ": 4872,
      "Ġà¤ħà¤«à¤¸": 4873,
      "Ġwaste": 4874,
      "Ġà¤¨à¤Ī": 4875,
      "ĠCommand": 4876,
      "law": 4877,
      "hot": 4878,
      "ĠGe": 4879,
      "ferences": 4880,
      "aper": 4881,
      "Ġà¤¸à¤¦à¤¸": 4882,
      "Sign": 4883,
      "Thank": 4884,
      "Ġgiving": 4885,
      "Ġallow": 4886,
      "Ġconvey": 4887,
      "aches": 4888,
      "ients": 4889,
      "avid": 4890,
      "ohn": 4891,
      "Said": 4892,
      "Ġhundred": 4893,
      "Ġunaware": 4894,
      "Ġà¤ĩà¤¨à¤®": 4895,
      "ĠYe": 4896,
      "Ġgotta": 4897,
      "Ġprivate": 4898,
      "dle": 4899,
      "à¤ªà¤¶": 4900,
      "eeds": 4901,
      "ryption": 4902,
      "à¤ħà¤²à¤Ĺ": 4903,
      "Ġ`%": 4904,
      "VS": 4905,
      "Ġmale": 4906,
      "Ġà¤¹à¤®à¤²": 4907,
      "ĠLDAP": 4908,
      "Ġunbelie": 4909,
      "Ġactor": 4910,
      "oura": 4911,
      "Ġà¤ªà¤¦": 4912,
      "Ġdoth": 4913,
      "ifies": 4914,
      "quest": 4915,
      "Ġapproach": 4916,
      "à¤¤à¤ļ": 4917,
      "Ġrepe": 4918,
      "ĠHad": 4919,
      "à¤¥à¤²": 4920,
      "Ġà¤īà¤ªà¤ķà¤°à¤£": 4921,
      "Ġà¤®à¤°à¤¯à¤®": 4922,
      "wo": 4923,
      "Ġà¤ķà¤Ł": 4924,
      "Ġà¤®à¥ĺà¤¸": 4925,
      "Ġà¤ĺà¤®": 4926,
      "Ġprotector": 4927,
      "',": 4928,
      "KC": 4929,
      "Ġswe": 4930,
      "à¤¬à¤Ĺ": 4931,
      "Ġaside": 4932,
      "osing": 4933,
      "à¤¯à¤ķà¤¤": 4934,
      "Ġrecip": 4935,
      "à¤ľà¤¬à¤ķ": 4936,
      "Ġpurify": 4937,
      "Ġcorrect": 4938,
      "Ġitems": 4939,
      "à¤ķà¤ª": 4940,
      "rec": 4941,
      "à¥Ĥ-": 4942,
      "Ġdomin": 4943,
      "Ġcustom": 4944,
      "Ġà¤ªà¥ľà¤¤": 4945,
      "justice": 4946,
      "Current": 4947,
      "Certificate": 4948,
      "Ġpract": 4949,
      "urs": 4950,
      "Ġeye": 4951,
      "Ġbirds": 4952,
      "24": 4953,
      "cul": 4954,
      "Ġfought": 4955,
      "Ġground": 4956,
      "à¤ĩà¤¨à¤ķ": 4957,
      "ĠUp": 4958,
      "ĠWhoever": 4959,
      "Ġignorant": 4960,
      "Ġfort": 4961,
      "amet": 4962,
      "Ġhours": 4963,
      "Ġgreatest": 4964,
      "Ġfavors": 4965,
      "Ġcapt": 4966,
      "Ġquestioned": 4967,
      "Contact": 4968,
      "GP": 4969,
      "mal": 4970,
      "Ġlose": 4971,
      "plate": 4972,
      "umbers": 4973,
      "8859": 4974,
      "Ġdiamonds": 4975,
      "iver": 4976,
      "à¤ªà¤¬": 4977,
      "Ġstyle": 4978,
      "ĠBeneficent": 4979,
      "Ġlearn": 4980,
      "Ġsplit": 4981,
      "Ġà¤ĳà¤«": 4982,
      "Enc": 4983,
      "aze": 4984,
      "azing": 4985,
      "Ġbondmen": 4986,
      "à¤°à¤²": 4987,
      "ouch": 4988,
      "acy": 4989,
      "Ġremained": 4990,
      "marks": 4991,
      "High": 4992,
      "à¤¬à¤¦à¤²": 4993,
      "Next": 4994,
      "ock": 4995,
      "Ġfixed": 4996,
      "Ġoccurred": 4997,
      "Ġbattle": 4998,
      "Ġmerciful": 4999,
      "sequ": 5000,
      "à¤¾à¤ģ.": 5001,
      "à¤łà¤¤": 5002,
      "Ġdece": 5003,
      "ackend": 5004,
      "Ġrul": 5005,
      "ĠIsa": 5006,
      "Ġmoving": 5007,
      "Play": 5008,
      "ounce": 5009,
      "gnome": 5010,
      ")]": 5011,
      "uk": 5012,
      "Ġsister": 5013,
      "oked": 5014,
      "Ġsuccessful": 5015,
      "ĠWork": 5016,
      "Ġglorify": 5017,
      "Ġhistory": 5018,
      "Ġbed": 5019,
      "Ġfur": 5020,
      "atives": 5021,
      "Ġinjustice": 5022,
      "Ġà¤¶à¤°à¤£": 5023,
      "Ġguess": 5024,
      "Inst": 5025,
      "Ġsinful": 5026,
      "pected": 5027,
      "----": 5028,
      "Ġevidences": 5029,
      "Ġide": 5030,
      "Ġfive": 5031,
      "Ġgold": 5032,
      "Ġslave": 5033,
      "Ġsubjected": 5034,
      "pes": 5035,
      "à¤ħà¤¦": 5036,
      "Ġmarriage": 5037,
      "Ġjinns": 5038,
      "porary": 5039,
      "ler": 5040,
      "Ġà¤®à¤§": 5041,
      "Ġà¤¬à¥ļ": 5042,
      "iting": 5043,
      "Ġself": 5044,
      "Ġwherever": 5045,
      "Ġentire": 5046,
      "Ġstayed": 5047,
      "ajest": 5048,
      "Ġstrengthen": 5049,
      "Ġlimits": 5050,
      "Ġprosper": 5051,
      "ET": 5052,
      "à¤¥à¤ķ": 5053,
      "ching": 5054,
      "icip": 5055,
      "Ġliar": 5056,
      "Ġlived": 5057,
      "sued": 5058,
      "Ġcountry": 5059,
      "only": 5060,
      "hic": 5061,
      "Ġbestow": 5062,
      "ĠExchange": 5063,
      "Ġtouched": 5064,
      "Ġinspired": 5065,
      "retched": 5066,
      "ww": 5067,
      "à¤ıà¤ļ": 5068,
      "Ġà¤Ĺà¥Ŀ": 5069,
      "Ġlad": 5070,
      "ection": 5071,
      "irection": 5072,
      "ference": 5073,
      "Ġavoid": 5074,
      "Ġdistress": 5075,
      "ĠJudge": 5076,
      "Ġsimilar": 5077,
      "Burn": 5078,
      "Ġbreat": 5079,
      "à¤ĸà¤ķ": 5080,
      "ĠHoly": 5081,
      "à¤Ĩà¤¸": 5082,
      "Ġactiv": 5083,
      "Ġminutes": 5084,
      "aur": 5085,
      "Ġpublic": 5086,
      "aces": 5087,
      "Ġpurpose": 5088,
      "Ã©": 5089,
      "Ġwise": 5090,
      "Ġstream": 5091,
      "reator": 5092,
      "Ġprofit": 5093,
      "ĠEditor": 5094,
      "'.": 5095,
      "à¤¤à¤¸": 5096,
      "Ġsum": 5097,
      "Ġfollowers": 5098,
      "Ġdouble": 5099,
      "Ġjudgment": 5100,
      "lcome": 5101,
      "Ġbell": 5102,
      "Ġslay": 5103,
      "Ġglory": 5104,
      "Ġregular": 5105,
      "Min": 5106,
      "Never": 5107,
      "ita": 5108,
      "à¤ıà¤«": 5109,
      "Ġintend": 5110,
      "Ġunable": 5111,
      "Server": 5112,
      "Calendar": 5113,
      "DVD": 5114,
      "bug": 5115,
      "will": 5116,
      "iff": 5117,
      "ĠNow": 5118,
      "Ġspr": 5119,
      "Ġwherewith": 5120,
      "Ġà¤®à¤°à¤¤à¤¬": 5121,
      "Ġcommunications": 5122,
      "Abraham": 5123,
      "Number": 5124,
      "Ġà¤¤à¤¯": 5125,
      "isters": 5126,
      "Ġà¤Ĺà¤§": 5127,
      "à¥Ĥà¤ģ?": 5128,
      "Ġangel": 5129,
      "Ġà¤®à¥Ľà¤¦": 5130,
      "Ġcommitted": 5131,
      "Ġcompanion": 5132,
      "Ch": 5133,
      "SO": 5134,
      "Ġbug": 5135,
      "Ġdoor": 5136,
      "Ġvan": 5137,
      "Ġinvalid": 5138,
      "Any": 5139,
      "Ġà¤¤à¤¸à¤¦": 5140,
      "Ġconnection": 5141,
      "Ġevildoers": 5142,
      "ivers": 5143,
      "Ġà¥Ļà¤¬à¤°à¤¦": 5144,
      "à¥Ļà¤°": 5145,
      "coming": 5146,
      "Ġcurrently": 5147,
      "Ġcursed": 5148,
      "mpathy": 5149,
      "des": 5150,
      "ĠAaron": 5151,
      "ĠWould": 5152,
      "Ġoblig": 5153,
      "Ġpossible": 5154,
      "Ġbaby": 5155,
      "Ġliken": 5156,
      "apan": 5157,
      "Ġquit": 5158,
      "odule": 5159,
      "Ġgroups": 5160,
      "Ġexceed": 5161,
      "Message": 5162,
      "After": 5163,
      "Ġlying": 5164,
      "à¤¬à¤ļ": 5165,
      "Ġlord": 5166,
      "ational": 5167,
      "ĠTO": 5168,
      "ĠError": 5169,
      "Ġasking": 5170,
      "Ġmatters": 5171,
      "Ġdwelling": 5172,
      "Ġidolaters": 5173,
      "à¤¡à¤¨": 5174,
      "Ġà¤ļà¤Ł": 5175,
      "Ġà¤¬à¤°à¤¬": 5176,
      "Ġforgiving": 5177,
      "Ġprice": 5178,
      "Ġclouds": 5179,
      "Mac": 5180,
      "Over": 5181,
      "Ġmine": 5182,
      "ĠHearing": 5183,
      "ume": 5184,
      "Ġspent": 5185,
      "file": 5186,
      "sc": 5187,
      "à¤¯à¤µà¤¹": 5188,
      "Ġdawn": 5189,
      "à¤ľà¤ķ": 5190,
      "ĠLe": 5191,
      "ĠThy": 5192,
      "Ġleaves": 5193,
      "AM": 5194,
      "Color": 5195,
      "SC": 5196,
      "à¤²à¤¡": 5197,
      "Ġà¤¸à¤®à¤ķ": 5198,
      "Ġmanager": 5199,
      "Ġtestify": 5200,
      "ped": 5201,
      "arious": 5202,
      "semb": 5203,
      "Ġeight": 5204,
      "akes": 5205,
      "Ġà¤ķà¤®à¤°": 5206,
      "Ġourselves": 5207,
      "Ġcompleted": 5208,
      "Ġhelpers": 5209,
      "ĠÂ·": 5210,
      "father": 5211,
      "à¤Īà¤¸": 5212,
      "Ġinterp": 5213,
      "à¤Ĩà¤°à¤ıà¤²": 5214,
      "à¤ıà¤®à¤ıà¤²": 5215,
      "Ġinhabit": 5216,
      "à¥ĭ;": 5217,
      "à¤¯à¤¥": 5218,
      "Ġà¤ªà¤µ": 5219,
      "Ġpled": 5220,
      "Ġfears": 5221,
      "Ġsett": 5222,
      "Ġsuddenly": 5223,
      "bject": 5224,
      "pha": 5225,
      "uild": 5226,
      "cted": 5227,
      "Ġlarge": 5228,
      "âĢĺ": 5229,
      "Ġshame": 5230,
      "Ġarmy": 5231,
      "ocument": 5232,
      "Att": 5233,
      "Certainly": 5234,
      "Ext": 5235,
      "Ġà¤ķà¤ķ": 5236,
      "hand": 5237,
      "Ġà¤¦à¤¹": 5238,
      "Ġà¤Ĩà¥Ľ": 5239,
      "ĠIM": 5240,
      "à¤¾à¤ģ-": 5241,
      "Ġdog": 5242,
      "ĠSolomon": 5243,
      "Ġallowed": 5244,
      "pted": 5245,
      "Ġà¤Ľà¤¤": 5246,
      "Ġproxy": 5247,
      "antly": 5248,
      "Ġworst": 5249,
      "Ġprison": 5250,
      "Ġsought": 5251,
      "Project": 5252,
      "à¤Ĺà¤®": 5253,
      "à¤§à¤¤": 5254,
      "Ġgover": 5255,
      "Ġattend": 5256,
      "!âĢĿ": 5257,
      "à¤ķà¤Ī": 5258,
      "à¤¸à¤ľ": 5259,
      "Ġà¤ĩà¤·": 5260,
      "Ġrid": 5261,
      "Ġmodify": 5262,
      "gy": 5263,
      "king": 5264,
      "lin": 5265,
      "ĠComp": 5266,
      "Ġtrees": 5267,
      "Ġà¤ļà¤ķ": 5268,
      "ĠMail": 5269,
      "ength": 5270,
      "except": 5271,
      "Ġmothers": 5272,
      "Ġthankful": 5273,
      "Ġlikeness": 5274,
      "Ġà¤¨à¤°": 5275,
      "Whatever": 5276,
      "Ġforecast": 5277,
      "Ġauthentication": 5278,
      "!'": 5279,
      "Ġnamed": 5280,
      "irst": 5281,
      "Ġhit": 5282,
      "ĠTorah": 5283,
      "Ġplugins": 5284,
      "à¤®à¤°à¤¨": 5285,
      "Ġspeaking": 5286,
      "Configure": 5287,
      "orizontal": 5288,
      "Ġmirac": 5289,
      "ole": 5290,
      "ances": 5291,
      "Ġfully": 5292,
      "Ġdwellers": 5293,
      "Ġbecomes": 5294,
      "Fl": 5295,
      "sy": 5296,
      "Ġearlier": 5297,
      "ĠJacob": 5298,
      "Ġà¤¿": 5299,
      "Ġà¤¤à¤¯à¤¶": 5300,
      "ots": 5301,
      "ĠMar": 5302,
      "Web": 5303,
      "Ġclass": 5304,
      "Trans": 5305,
      "à¤¼à¤Ĥ": 5306,
      "Ġhalf": 5307,
      "oday": 5308,
      "à¤Ĩà¤¹": 5309,
      "iled": 5310,
      "rand": 5311,
      "Ġdeg": 5312,
      "Ġà¤ªà¤¹à¤¨": 5313,
      "Ġagree": 5314,
      "Ġdestruction": 5315,
      "Ġaccounts": 5316,
      "ĠOneness": 5317,
      "Ġyes": 5318,
      "à¤¶à¤µ": 5319,
      "osa": 5320,
      "ively": 5321,
      "Ġunknown": 5322,
      "Connect": 5323,
      "Ġprophets": 5324,
      "vice": 5325,
      "Ġreali": 5326,
      "à¥ľà¤¨": 5327,
      "à¤īà¤¸à¤®": 5328,
      "key": 5329,
      "Ġcometh": 5330,
      "ĠCont": 5331,
      "Ġcommands": 5332,
      "Ġheads": 5333,
      "Ġexplain": 5334,
      "Ġà¤¹à¤¥": 5335,
      "rely": 5336,
      "Ġà¤¤à¤®à¤¨": 5337,
      "Ġchose": 5338,
      "entation": 5339,
      "ĠWell": 5340,
      "ĠMessages": 5341,
      "Ġclubs": 5342,
      "Ġà¤ªà¥Ŀà¤¤": 5343,
      "Mr": 5344,
      "à¤¬à¤ķ": 5345,
      "Ġà¤µà¤¶": 5346,
      "ĠAlmighty": 5347,
      "Ġactions": 5348,
      "Ġobserve": 5349,
      "Mar": 5350,
      "mn": 5351,
      "rant": 5352,
      "ux": 5353,
      "Ġair": 5354,
      "Ġahead": 5355,
      "oub": 5356,
      "Ġà¤¨à¤·": 5357,
      "itan": 5358,
      "Ġmatch": 5359,
      "Ġpaid": 5360,
      "ĠHigh": 5361,
      "Ġà¤ıà¤¸": 5362,
      "Ġhot": 5363,
      "Ġà¥ŀà¤¸": 5364,
      "Ġwarnings": 5365,
      "Ġdetails": 5366,
      "look": 5367,
      "Ġà¤¹à¤°à¤ķà¤¤": 5368,
      "Ġgar": 5369,
      "Ġstud": 5370,
      "à¤¤à¤°à¤¹": 5371,
      "ension": 5372,
      "Disc": 5373,
      "Ġorphans": 5374,
      "Ġancients": 5375,
      "Bo": 5376,
      "Mus": 5377,
      "Ġtool": 5378,
      "Ġpubl": 5379,
      "Ġvoice": 5380,
      "Ġrich": 5381,
      "Ġ100": 5382,
      "à¤īà¤¸à¤¸": 5383,
      "morrow": 5384,
      "reed": 5385,
      "Ġmort": 5386,
      "oman": 5387,
      "Ġtherewith": 5388,
      "umm": 5389,
      "Ġsense": 5390,
      "Ġtravel": 5391,
      "OW": 5392,
      "TL": 5393,
      "ju": 5394,
      "à¤¹à¤µ": 5395,
      "Ġscreen": 5396,
      "Ġfle": 5397,
      "Ġcities": 5398,
      "Ġpict": 5399,
      "à¤¶à¤®": 5400,
      "à¤¡à¤®": 5401,
      "ĠSoft": 5402,
      "ĠOf": 5403,
      "Ġheedless": 5404,
      "Ġvirtuous": 5405,
      "against": 5406,
      "ĠArabic": 5407,
      "à¤«à¤²à¤¤": 5408,
      "Ġkeys": 5409,
      "Ġdecided": 5410,
      "MAN": 5411,
      "à¥Ĩ": 5412,
      "Ġbound": 5413,
      "world": 5414,
      "Ġstrike": 5415,
      "Ġfront": 5416,
      "Ġcovered": 5417,
      "++": 5418,
      "vail": 5419,
      "Ġà¤ħà¤®à¤²": 5420,
      "Ġtomorrow": 5421,
      "leg": 5422,
      "rove": 5423,
      "ĠCan": 5424,
      "Ġarm": 5425,
      "lesh": 5426,
      "HA": 5427,
      "screen": 5428,
      "Ġà¤¬à¤Ľ": 5429,
      "ĠWhom": 5430,
      "Ġhumb": 5431,
      "Ġdiffer": 5432,
      "Ġleaders": 5433,
      "end": 5434,
      "Ġà¥Ļà¤¤": 5435,
      "Ġbox": 5436,
      "Ġaffli": 5437,
      "Ġà¤łà¤¹à¤°à¤¨": 5438,
      "à¤Ĭà¤ªà¤°": 5439,
      "Ġrespond": 5440,
      "Sim": 5441,
      "à¤ĩà¤¤": 5442,
      "ĠFr": 5443,
      "asted": 5444,
      "Ġvari": 5445,
      "Ġà¤ķà¤®à¥Ľ": 5446,
      "Ġparts": 5447,
      "Ġrighteously": 5448,
      "Ġpolice": 5449,
      "Ġdecision": 5450,
      "Ġrelatives": 5451,
      "Ġplaces": 5452,
      "Ġmentioned": 5453,
      "Ġnations": 5454,
      "ĠAble": 5455,
      "ĠHar": 5456,
      "uture": 5457,
      "Ġweb": 5458,
      "à¤Ĩà¤ªà¤¨": 5459,
      "istan": 5460,
      "pens": 5461,
      "ermiss": 5462,
      "Forgiving": 5463,
      "Ġtestim": 5464,
      "Ġident": 5465,
      "ordin": 5466,
      "ĠPraise": 5467,
      "ĠCreator": 5468,
      "ĠThee": 5469,
      "Ġà¤ħà¤µà¤¸": 5470,
      "Ġservant": 5471,
      "Ġencount": 5472,
      "Ġcrimin": 5473,
      "Ġinhabitants": 5474,
      "None": 5475,
      "Ġround": 5476,
      "Ġrelation": 5477,
      "ĠSy": 5478,
      "cket": 5479,
      "usion": 5480,
      "log": 5481,
      "Ġassist": 5482,
      "Ġtongue": 5483,
      "ĠIsaac": 5484,
      "%%": 5485,
      "à¤ķà¤¦": 5486,
      "lies": 5487,
      "à¤Ĩà¤¤": 5488,
      "ically": 5489,
      "ĠPOP": 5490,
      "umer": 5491,
      "uel": 5492,
      "Ġresurre": 5493,
      "Ġadvice": 5494,
      "Cance": 5495,
      "IP": 5496,
      "ying": 5497,
      "Ġà¤®à¤Ľà¤²": 5498,
      "otoc": 5499,
      "Ġforce": 5500,
      "ĠDid": 5501,
      "ĠFound": 5502,
      "Ask": 5503,
      "Ġroad": 5504,
      "Ġactive": 5505,
      "pirit": 5506,
      "Ġà¤ħà¤Łà¤ķà¤²": 5507,
      "Count": 5508,
      "Gl": 5509,
      "Ġwont": 5510,
      "à¤Ĺà¤ľ": 5511,
      "orry": 5512,
      "ĠType": 5513,
      "ĠProperties": 5514,
      "Ġevents": 5515,
      "Ġenv": 5516,
      "Ġdescription": 5517,
      "Ġchannel": 5518,
      "Ġswall": 5519,
      "ĠUnseen": 5520,
      "lexander": 5521,
      "Ġmap": 5522,
      "aniz": 5523,
      "anna": 5524,
      "cts": 5525,
      "à¤Ĩà¤ı": 5526,
      "Ġ'{": 5527,
      "Ġ15": 5528,
      "Ġalthough": 5529,
      "Reg": 5530,
      "Ġspecify": 5531,
      "Ġpalm": 5532,
      "Insert": 5533,
      "fathers": 5534,
      "Follow": 5535,
      "vest": 5536,
      "ya": 5537,
      "zy": 5538,
      "reci": 5539,
      "Ġchat": 5540,
      "Ġpra": 5541,
      "Ġupright": 5542,
      "ĠPlugin": 5543,
      "Cal": 5544,
      "eal": 5545,
      "tk": 5546,
      "uce": 5547,
      "oring": 5548,
      "ĠSpirit": 5549,
      "Ġstones": 5550,
      "Ġà¤ĺà¤¨": 5551,
      "Ġprayed": 5552,
      "Ġobedient": 5553,
      "Ġboiling": 5554,
      "Ġattain": 5555,
      "Ġdevil": 5556,
      "Ġconduct": 5557,
      "Video": 5558,
      "Ġarea": 5559,
      "Ġdevelop": 5560,
      "ards": 5561,
      "Ġconsequ": 5562,
      "olved": 5563,
      "Ġ*.": 5564,
      "Ġassigned": 5565,
      "Download": 5566,
      "US": 5567,
      "cceed": 5568,
      "Ġflesh": 5569,
      "itation": 5570,
      "Ġphoto": 5571,
      "Ġà¤¯à¤¤": 5572,
      "verted": 5573,
      "Ġsex": 5574,
      "Ġsucceed": 5575,
      "Ġago": 5576,
      "Ġdesktop": 5577,
      "Ġhate": 5578,
      "ĠForg": 5579,
      "Ġterms": 5580,
      "Ġlaugh": 5581,
      "ĠSoftware": 5582,
      "UCK": 5583,
      "write": 5584,
      "à¤īà¤¦": 5585,
      "ishment": 5586,
      "Ġwhereof": 5587,
      "Ġruin": 5588,
      "medi": 5589,
      "People": 5590,
      "Red": 5591,
      "Ġà¤ķà¤ªà¤Ł": 5592,
      "Ġnon": 5593,
      "amera": 5594,
      "ĠSub": 5595,
      "Ġsever": 5596,
      "Ġalmost": 5597,
      "ĠReminder": 5598,
      "ourable": 5599,
      "CE": 5600,
      "II": 5601,
      "zing": 5602,
      "Ġmill": 5603,
      "Ġisn": 5604,
      "Ġsake": 5605,
      "Ġvouch": 5606,
      "Ġspo": 5607,
      "Ġ//": 5608,
      "Behold": 5609,
      "Ġhonour": 5610,
      "Ġbounties": 5611,
      "Ġfirmly": 5612,
      "Ġfemales": 5613,
      "Ġdominion": 5614,
      "Satan": 5615,
      "Ġà¤Ĩà¤Ń": 5616,
      "rier": 5617,
      "Ġà¤¸à¤¬à¤¬": 5618,
      "Ġà¤§à¤®à¤ķ": 5619,
      "Ġperman": 5620,
      "Ass": 5621,
      "Ġadded": 5622,
      "Ġ30": 5623,
      "Ġinsert": 5624,
      "Const": 5625,
      "Ġà¤®à¥ļà¤«": 5626,
      "ĠJudgement": 5627,
      "IL": 5628,
      "onent": 5629,
      "à¥ĭà¤Ĥ.": 5630,
      "lia": 5631,
      "Ġstaff": 5632,
      "Ġindec": 5633,
      "Ġperceive": 5634,
      "Ġblessing": 5635,
      "Ġpiety": 5636,
      "Ġsprings": 5637,
      "Last": 5638,
      "Ġgate": 5639,
      "ĠWhere": 5640,
      "Ġvarious": 5641,
      "uded": 5642,
      "Ġpunished": 5643,
      "Ġforefathers": 5644,
      "Ġvisible": 5645,
      "ĠAyat": 5646,
      "Ġneglect": 5647,
      "Chan": 5648,
      "cus": 5649,
      "Ġà¤¬à¤°à¤¤": 5650,
      "ĠAccount": 5651,
      "Ġheld": 5652,
      "ĠMajest": 5653,
      "ĠSp": 5654,
      "Sec": 5655,
      "Ġoffic": 5656,
      "plete": 5657,
      "Loading": 5658,
      "End": 5659,
      "Ġgrief": 5660,
      "Ġà¤ıà¤¨": 5661,
      "amb": 5662,
      "Ġhttp": 5663,
      "Ġdeep": 5664,
      "à¤¹à¤°à¤Ĺ": 5665,
      "Ġtemporary": 5666,
      "Ġidea": 5667,
      "UT": 5668,
      "bes": 5669,
      "unto": 5670,
      "à¤°à¤¥": 5671,
      "Ġà¤µà¤¬": 5672,
      "à¤ĩà¤°": 5673,
      "âĢį": 5674,
      "Ġà¤¬à¤°à¤¹à¥ĺ": 5675,
      "Ġà¤ĳà¤¡": 5676,
      "Ġpatiently": 5677,
      "Ġinfidels": 5678,
      "Ha": 5679,
      "Inter": 5680,
      "Mem": 5681,
      "cify": 5682,
      "Ġà¤¨à¤µ": 5683,
      "à¤ĩà¤¬à¤°": 5684,
      "ĠMosque": 5685,
      "ĠTab": 5686,
      "ĠTime": 5687,
      "ĠPres": 5688,
      "Were": 5689,
      "ĠQu": 5690,
      "Ġinterpret": 5691,
      "Custom": 5692,
      "cha": 5693,
      "cred": 5694,
      "Ġsides": 5695,
      "Ġnumbers": 5696,
      "Ġbeings": 5697,
      "Ġlaid": 5698,
      "à¤Ĩà¤¸à¤®": 5699,
      "Ġtrouble": 5700,
      "ĠOF": 5701,
      "à¤°à¤®à¤£": 5702,
      "Ġhereafter": 5703,
      "ĠProphets": 5704,
      "Ġà¤¬à¥Ŀà¤ķà¤°": 5705,
      "Ġtrave": 5706,
      "Ġsuccessfully": 5707,
      "Should": 5708,
      "Ġawaits": 5709,
      "Ġpreferred": 5710,
      "ĠGracious": 5711,
      "Ġaffliction": 5712,
      "Act": 5713,
      "Off": 5714,
      "mun": 5715,
      "what": 5716,
      "Ġpairs": 5717,
      "Ġcomfort": 5718,
      "ĠDis": 5719,
      "wards": 5720,
      "ĠWorlds": 5721,
      "Source": 5722,
      "help": 5723,
      "Ġmist": 5724,
      "à¤ľà¤®": 5725,
      "Ġà¤¶à¤¹": 5726,
      "Ġalms": 5727,
      "mbols": 5728,
      "Ġcharge": 5729,
      "Ġsettled": 5730,
      "Mod": 5731,
      "Password": 5732,
      "more": 5733,
      "à¤ľà¤¯": 5734,
      "rag": 5735,
      "ĠPower": 5736,
      "Ġshows": 5737,
      "ĠInformation": 5738,
      "Ġequals": 5739,
      "Ġtestimony": 5740,
      "14": 5741,
      "cent": 5742,
      "à¤²à¤µ": 5743,
      "Ġche": 5744,
      "Ġcir": 5745,
      "ĠAb": 5746,
      "iders": 5747,
      "Ġlibrary": 5748,
      "ĠDocument": 5749,
      "olute": 5750,
      "Ġgoodly": 5751,
      "à¥ĭ!\"": 5752,
      "Ġdistin": 5753,
      "Mon": 5754,
      "MIME": 5755,
      "Ġà¤ķà¤ļà¤°": 5756,
      "Ġwide": 5757,
      "à¤Łà¤µ": 5758,
      "Ġvall": 5759,
      "Ġrad": 5760,
      "à¤°à¤¹à¤£": 5761,
      "Conf": 5762,
      "Ġmoment": 5763,
      "Alif": 5764,
      "Ġur": 5765,
      "Ġhonor": 5766,
      "Ġà¤®à¤²": 5767,
      "à¤ªà¤¥": 5768,
      "lebr": 5769,
      "ĠText": 5770,
      "Ġknowing": 5771,
      "ĠClear": 5772,
      "Ġdownload": 5773,
      "them": 5774,
      "Ġresc": 5775,
      "Ġwhereon": 5776,
      "Ġincreased": 5777,
      "passionate": 5778,
      "Ġvouchs": 5779,
      "france": 5780,
      "iple": 5781,
      "Ġbased": 5782,
      "Ġcoun": 5783,
      "olve": 5784,
      "Sir": 5785,
      "god": 5786,
      "att": 5787,
      "à¥ĺà¤¦": 5788,
      "Ġtherefrom": 5789,
      "Ġalarm": 5790,
      "Ġwriting": 5791,
      "Ġlesson": 5792,
      "Ġinstalled": 5793,
      "à¤¿-": 5794,
      "à¤²à¤¹": 5795,
      "Ġgates": 5796,
      "Ġheight": 5797,
      "ilg": 5798,
      "bearing": 5799,
      "oken": 5800,
      "Ġspeed": 5801,
      "Ġentry": 5802,
      "Ġlessons": 5803,
      "Ġalike": 5804,
      "Ġintercession": 5805,
      "Ġstruck": 5806,
      "AB": 5807,
      "Knowing": 5808,
      "iverse": 5809,
      "which": 5810,
      "Ġsort": 5811,
      "à¤ĸà¤¡": 5812,
      "ĠTell": 5813,
      "aken": 5814,
      "ĠEven": 5815,
      "Ġrans": 5816,
      "Ġà¤īà¤ªà¤¹": 5817,
      "Ġà¤®à¤¹à¤²": 5818,
      "Indian": 5819,
      "Ġwhe": 5820,
      "Ġpag": 5821,
      "Ġà¤ıà¤¨à¤ķ": 5822,
      "Ġwithd": 5823,
      "Ġdeities": 5824,
      "pelled": 5825,
      "Ġexact": 5826,
      "oints": 5827,
      "Ġreading": 5828,
      "Ġcalf": 5829,
      "Ġ199": 5830,
      "directory": 5831,
      "ye": 5832,
      "Ġsan": 5833,
      "Ġpix": 5834,
      "anced": 5835,
      "à¥Ģà¤Ĥà¥¤\"": 5836,
      "ctor": 5837,
      "ĠDavid": 5838,
      "Ġà¥ŀà¥Ľà¤²": 5839,
      "Ġshowed": 5840,
      "Ġcharacter": 5841,
      "Email": 5842,
      "oran": 5843,
      "Ġphone": 5844,
      "ators": 5845,
      "ĠLink": 5846,
      "ĠCo": 5847,
      "Ġà¤ĵà¤¹": 5848,
      "Ġwinds": 5849,
      "Ġmultip": 5850,
      "Ġsacrif": 5851,
      "CVS": 5852,
      "KDE": 5853,
      "Miss": 5854,
      "Ġbackend": 5855,
      "ader": 5856,
      "order": 5857,
      "ĠCA": 5858,
      "Ġrightly": 5859,
      "Ġchance": 5860,
      "Ġgreen": 5861,
      "Ġanimals": 5862,
      "Creat": 5863,
      "gain": 5864,
      "Ġsisters": 5865,
      "Ġmaster": 5866,
      "steps": 5867,
      "à¤Ĩà¤®": 5868,
      "ulation": 5869,
      "ĠOpen": 5870,
      "Ġà¤ħà¤µà¤¸à¤°": 5871,
      "Ġretrie": 5872,
      "Ġheader": 5873,
      "ĠMoosa": 5874,
      "dis": 5875,
      "Ġwanna": 5876,
      "à¤¦à¤¦": 5877,
      "à¤ªà¤¢": 5878,
      "Ġdread": 5879,
      "Ġnine": 5880,
      "Ġà¤ĸà¤¬à¤°": 5881,
      "à¤Ĩà¤ĵ": 5882,
      "rack": 5883,
      "venge": 5884,
      "unit": 5885,
      "Ġvill": 5886,
      "Ġimag": 5887,
      "Ġtwice": 5888,
      "Ġseconds": 5889,
      "ĠOnly": 5890,
      "Ġterror": 5891,
      "Ġsoftware": 5892,
      "OL": 5893,
      "http": 5894,
      "ishes": 5895,
      "sthis": 5896,
      "Ġheir": 5897,
      "Ġà¤ıà¤ķà¤¤": 5898,
      "Ġexpend": 5899,
      "fered": 5900,
      "Ġrefused": 5901,
      "ĠSelect": 5902,
      "Ġmarried": 5903,
      "Ġdriven": 5904,
      "Ġblock": 5905,
      "125": 5906,
      "Ġmaintain": 5907,
      "Ġbefalls": 5908,
      "ĠShu": 5909,
      "Ne": 5910,
      "deeds": 5911,
      "org": 5912,
      "Ġà¤ħà¤¹": 5913,
      "Ġcell": 5914,
      "Ġbearer": 5915,
      "entle": 5916,
      "Ġwhatsthis": 5917,
      "à¤ĩà¤¸à¤²": 5918,
      "uddy": 5919,
      "Ġrecall": 5920,
      "Ġhumble": 5921,
      "Command": 5922,
      "Ġrestore": 5923,
      "Ġkindness": 5924,
      "ĠStraight": 5925,
      "Class": 5926,
      "ĠIMAP": 5927,
      "Ġtyp": 5928,
      "à¤ļà¤²à¤¨": 5929,
      "acred": 5930,
      "Ġimmedi": 5931,
      "Ġteam": 5932,
      "ĠFoundation": 5933,
      "Ġpermanently": 5934,
      "cher": 5935,
      "à¤¾à¥°": 5936,
      "ĠIN": 5937,
      "ntil": 5938,
      "empt": 5939,
      "usted": 5940,
      "à¤¸à¤¬à¤¸": 5941,
      "Forward": 5942,
      "Ġdwellings": 5943,
      "Ġsubmitted": 5944,
      "Ġdespair": 5945,
      "blis": 5946,
      "21": 5947,
      "MB": 5948,
      "SV": 5949,
      "Sk": 5950,
      "Sha": 5951,
      "Ġdatabase": 5952,
      "à¤Łà¤µà¤°": 5953,
      "Ġinput": 5954,
      "à¤Ŀà¤¤": 5955,
      "Ġà¤ĺà¤¬à¤°": 5956,
      "Ġoutput": 5957,
      "Exp": 5958,
      "Ġhousehold": 5959,
      "Ġenjoined": 5960,
      "IR": 5961,
      "Ret": 5962,
      "Sorry": 5963,
      "à¤°à¤ļà¤¨": 5964,
      "à¤°à¤¥à¤®": 5965,
      "Ġfilled": 5966,
      "Ġà¤Ńà¤µ": 5967,
      "Ġthrew": 5968,
      "ĠBr": 5969,
      "ĠFilter": 5970,
      "ĠâĢĶ": 5971,
      "anger": 5972,
      "Ġpossessed": 5973,
      "lawful": 5974,
      "apt": 5975,
      "rong": 5976,
      "Ġà¤²à¤ª": 5977,
      "Ġà¤°à¤«": 5978,
      "henna": 5979,
      "Ġperish": 5980,
      "Address": 5981,
      "Ġà¤¨à¤«à¤°à¤¤": 5982,
      "à¤ħà¤¸à¤²": 5983,
      "Ġnearer": 5984,
      "Ġrise": 5985,
      "Ġclip": 5986,
      "Ġransom": 5987,
      "AME": 5988,
      "inity": 5989,
      "Ġcop": 5990,
      "à¤£à¤¤": 5991,
      "ĠTHE": 5992,
      "ĠOh": 5993,
      "ĠEvil": 5994,
      "Ġclot": 5995,
      "à¤¬à¤¤à¤¦": 5996,
      "mitted": 5997,
      "Ġacts": 5998,
      "Ġdevils": 5999,
      "Ġbenefits": 6000,
      "Previous": 6001,
      "SSL": 6002,
      "à¥ĩà¤Ĥ!": 6003,
      "Ġdad": 6004,
      "à¤ģ?": 6005,
      "ĠAm": 6006,
      "Ġassociates": 6007,
      "Ġinterest": 6008,
      "Ġproperties": 6009,
      "Ġpenalty": 6010,
      "Ġfootsteps": 6011,
      "Em": 6012,
      "Most": 6013,
      "ram": 6014,
      "reet": 6015,
      "isions": 6016,
      "Ġmut": 6017,
      "Ġwhoso": 6018,
      "imate": 6019,
      "ĠPen": 6020,
      "Ġsorrow": 6021,
      "Ġdisplayed": 6022,
      "Leave": 6023,
      "Ġcelebr": 6024,
      "Ġmouths": 6025,
      "Ġsweet": 6026,
      "EN": 6027,
      "evil": 6028,
      "nor": 6029,
      "atory": 6030,
      "Ġinit": 6031,
      "Ġtheme": 6032,
      "Ġsacred": 6033,
      "ĠCalendar": 6034,
      "Ġsold": 6035,
      "Ġà¤¸à¤®à¤Ŀà¤¨": 6036,
      "ĠYes": 6037,
      "ossible": 6038,
      "Ġachie": 6039,
      "ĠConfig": 6040,
      "AY": 6041,
      "Full": 6042,
      "Jesus": 6043,
      "Key": 6044,
      "PI": 6045,
      "TS": 6046,
      "aho": 6047,
      "gen": 6048,
      "Ġà¤®à¥Ļà¤²": 6049,
      "à¤¾à¤ģ?": 6050,
      "Ġshad": 6051,
      "people": 6052,
      "Ġenabled": 6053,
      "Ġspir": 6054,
      "Ġinvest": 6055,
      "Ġexisting": 6056,
      "Work": 6057,
      "Ġvouchsaf": 6058,
      "Ġsacrifice": 6059,
      "CC": 6060,
      "Location": 6061,
      "bb": 6062,
      "cut": 6063,
      "lace": 6064,
      "nc": 6065,
      "Ġà¤¨à¤°à¤®": 6066,
      "Ġbright": 6067,
      "ese": 6068,
      "nty": 6069,
      "Ġwasn": 6070,
      "ospel": 6071,
      "Ġworthy": 6072,
      "ĠNor": 6073,
      "Ġpreced": 6074,
      "Preview": 6075,
      "Ġminute": 6076,
      "Ġjoined": 6077,
      "Ġconfirming": 6078,
      "Ġfurther": 6079,
      "book": 6080,
      "asp": 6081,
      "Ġproduced": 6082,
      "Ġafflicted": 6083,
      "ĠGuard": 6084,
      "Category": 6085,
      "Sal": 6086,
      "iB": 6087,
      "à¤²à¤ļ": 6088,
      "Ġbottom": 6089,
      "Ġfuture": 6090,
      "Ġnice": 6091,
      "aries": 6092,
      "Ġitself": 6093,
      "acher": 6094,
      "Ġattribute": 6095,
      "Ġassociated": 6096,
      "Ġfulfil": 6097,
      "Ġrejoice": 6098,
      ".,": 6099,
      "even": 6100,
      "lm": 6101,
      "Ġafore": 6102,
      "à¤¼à¥ĩ,": 6103,
      "ĠWindow": 6104,
      "amity": 6105,
      "ĠMode": 6106,
      "Ġworry": 6107,
      "Ġthinking": 6108,
      "à¤Ķà¤ľ": 6109,
      "Ġmountain": 6110,
      "proofs": 6111,
      "Ġthird": 6112,
      "IF": 6113,
      "sing": 6114,
      "Ġà¤¨à¤Ĺà¤°": 6115,
      "Ġtoolbar": 6116,
      "à¥Īà¤Ĥ:": 6117,
      "Ġthread": 6118,
      "à¤Ńà¤Ĺ": 6119,
      "olit": 6120,
      "acity": 6121,
      "ĠYeah": 6122,
      "riend": 6123,
      "Ġroot": 6124,
      "Ġslaught": 6125,
      "IMAP": 6126,
      "vince": 6127,
      "\":": 6128,
      "Ġmur": 6129,
      "ĠSacred": 6130,
      "Ġseed": 6131,
      "icode": 6132,
      "aged": 6133,
      "Ġà¤īà¤łà¤¨": 6134,
      "Ġwrongdoing": 6135,
      "ĠIndia": 6136,
      "Free": 6137,
      "zz": 6138,
      "Ġà¤¤à¤¹": 6139,
      "orious": 6140,
      "....": 6141,
      "Ġdemand": 6142,
      "Ġrow": 6143,
      "Ġinsol": 6144,
      "Ġworshipping": 6145,
      "Ġdisobeyed": 6146,
      "Ġrecipients": 6147,
      "à¤®à¤ľ": 6148,
      "Ġcro": 6149,
      "ĠMak": 6150,
      "Ġseize": 6151,
      "Ġdesert": 6152,
      "Ġautomatically": 6153,
      "Maybe": 6154,
      "remember": 6155,
      "Ġbounds": 6156,
      "Ġà¤ħà¤®à¤¨": 6157,
      "à¥ĭà¤Ĥ?": 6158,
      "Ġch": 6159,
      "Ġà¤ıà¤¡": 6160,
      "Ġà¤¥à¤ķ": 6161,
      "à¥ĺà¤²": 6162,
      "Ġacqu": 6163,
      "Ġswift": 6164,
      "Ġcarried": 6165,
      "Ġparable": 6166,
      "ĠManager": 6167,
      "Reply": 6168,
      "18": 6169,
      "Script": 6170,
      "back": 6171,
      "Ġï": 6172,
      "Ġwished": 6173,
      "Ġop": 6174,
      "hool": 6175,
      "atches": 6176,
      "ĠSpe": 6177,
      "à¤īà¤®": 6178,
      "à¤ªà¤°à¤µ": 6179,
      "ĠEvery": 6180,
      "Ġgoodness": 6181,
      "Ġpersons": 6182,
      "Ġbegan": 6183,
      "Ġarguments": 6184,
      "ository": 6185,
      "zed": 6186,
      "à¤°à¤ļ": 6187,
      "Ġfig": 6188,
      "Ġlength": 6189,
      "Ġà¥ĺà¤¦à¤°": 6190,
      "Ġimm": 6191,
      "Ġaccom": 6192,
      "Place": 6193,
      "Listen": 6194,
      "ĠGNOME": 6195,
      "Ġforgotten": 6196,
      "Ġinvented": 6197,
      "Ġrebellious": 6198,
      "23": 6199,
      "Ġ(\"": 6200,
      "Ġfish": 6201,
      "Ġtot": 6202,
      "ĠInter": 6203,
      "ĠMem": 6204,
      "ĠGame": 6205,
      "à¤īà¤²": 6206,
      "umph": 6207,
      "Ġwherefore": 6208,
      "ogle": 6209,
      "Ġslain": 6210,
      "Ġwindows": 6211,
      "Ġdaughter": 6212,
      "ĠHTTP": 6213,
      "Ġdefend": 6214,
      "Ġdisobedient": 6215,
      "inger": 6216,
      "Ġhabit": 6217,
      "Ġunjustly": 6218,
      "Ġbarrier": 6219,
      "Ġrecompensed": 6220,
      "Ġtowns": 6221,
      "Ġdescendants": 6222,
      "¿½": 6223,
      "Ġà¤ħà¤¯": 6224,
      "Ġpull": 6225,
      "Ġà¤Ĩà¤ł": 6226,
      "enty": 6227,
      "ĠMount": 6228,
      "ĠShow": 6229,
      "Ġstep": 6230,
      "ĠTruly": 6231,
      "ĠData": 6232,
      "Ġdise": 6233,
      "Ġrewarded": 6234,
      "tingu": 6235,
      "Ġgracious": 6236,
      "Ġdecide": 6237,
      "Ġtreas": 6238,
      "Ġignorance": 6239,
      "HTML": 6240,
      "Toggle": 6241,
      "Ġï¿½": 6242,
      "Ant": 6243,
      "came": 6244,
      "ja": 6245,
      "rehe": 6246,
      "oud": 6247,
      "ĠBount": 6248,
      "Ġworse": 6249,
      "Ġparties": 6250,
      "Ġvouchsafed": 6251,
      "Home": 6252,
      "Ġsli": 6253,
      "Ġsell": 6254,
      "ths": 6255,
      "Ġhig": 6256,
      "Ġrot": 6257,
      "Ġfeared": 6258,
      "Ġtriumph": 6259,
      "Ġ2007": 6260,
      "Ġchiefs": 6261,
      "First": 6262,
      "ipp": 6263,
      "Ġsed": 6264,
      "Ġà¤¦à¤¹à¤²": 6265,
      "Ġnetwork": 6266,
      "Ġvision": 6267,
      "Ġà¤¸à¤¹à¤Ń": 6268,
      "Ġwombs": 6269,
      "Ġprescribed": 6270,
      "Ġleads": 6271,
      "Ġdivided": 6272,
      "Ġextra": 6273,
      "Ġdetermined": 6274,
      "Ġà¤Ĩà¤īà¤Łà¤ª": 6275,
      "Ġwander": 6276,
      "Ġborn": 6277,
      "Ġà¤²à¤®": 6278,
      "ority": 6279,
      "Ġdirection": 6280,
      "ĠAN": 6281,
      "ĠWeb": 6282,
      "Ġstation": 6283,
      "à¥Ĥà¤ģ!": 6284,
      "Ġblown": 6285,
      "ĠBooks": 6286,
      "ifications": 6287,
      "Ġheaders": 6288,
      "Window": 6289,
      "idth": 6290,
      "Ġlate": 6291,
      "âĢĭ": 6292,
      "ĠPhone": 6293,
      "Ġunlawful": 6294,
      "missions": 6295,
      "ĠCompassionate": 6296,
      "Ġhumiliating": 6297,
      "tty": 6298,
      "Ġ00": 6299,
      "à¤ķà¤¬": 6300,
      "à¥Ī!\"": 6301,
      "also": 6302,
      "Ġsup": 6303,
      "ources": 6304,
      "ĠCome": 6305,
      "Ġfellow": 6306,
      "Ġà¤ªà¥Ŀà¤¨": 6307,
      "Ġattachment": 6308,
      "Ġseparate": 6309,
      "\"?": 6310,
      "nch": 6311,
      "Ġbal": 6312,
      "Ġfat": 6313,
      "Ġà¤¦à¤®": 6314,
      "illa": 6315,
      "Ġsucc": 6316,
      "erson": 6317,
      "ĠKoran": 6318,
      "Ġà¤¢à¤ķ": 6319,
      "Ġinterpretation": 6320,
      "Put": 6321,
      "Ġà¤īà¤ĸ": 6322,
      "Ġà¤¬à¤Ĺà¤²": 6323,
      "Ġban": 6324,
      "orter": 6325,
      "Ġhair": 6326,
      "Ġsuper": 6327,
      "Ġride": 6328,
      "erman": 6329,
      "Ġmissing": 6330,
      "ufficient": 6331,
      "Ġbuilding": 6332,
      "Ġabundance": 6333,
      "Build": 6334,
      "mo": 6335,
      "Ġà¤¨à¤¤": 6336,
      "Ġfate": 6337,
      "aming": 6338,
      "Ġdisk": 6339,
      "Ġcool": 6340,
      "ocal": 6341,
      "clus": 6342,
      "Ġlooks": 6343,
      "Ġdiffered": 6344,
      "Ġdeclare": 6345,
      "à¤¤à¤®à¤ķ": 6346,
      "Ġain": 6347,
      "isf": 6348,
      "Ġà¤µà¤Ĺ": 6349,
      "Ġcup": 6350,
      "à¤¼à¤¾,": 6351,
      "Ġnar": 6352,
      "ĠMight": 6353,
      "ĠPar": 6354,
      "Noah": 6355,
      "Ġtelling": 6356,
      "Auto": 6357,
      "Ġranks": 6358,
      "GenericName": 6359,
      "16": 6360,
      "25": 6361,
      "Ġà¤ĸà¤¤à¤°": 6362,
      "à¤Ĩà¤ĸ": 6363,
      "Ġasunder": 6364,
      "Ġdeity": 6365,
      "ĠDec": 6366,
      "Ġgraves": 6367,
      "Ġpowerful": 6368,
      "ART": 6369,
      "Always": 6370,
      "Ġsuffering": 6371,
      "Ġzoom": 6372,
      "ĠShaitan": 6373,
      "Ġà¤¦à¤¹à¤ķà¤¤": 6374,
      "otocol": 6375,
      "Ġspirit": 6376,
      "ndered": 6377,
      "à¥ĩà¤Ĥ@": 6378,
      "Ġà¤īà¤¤à¤¨": 6379,
      "Ġà¤¬à¤°à¤ķ": 6380,
      "Ġ()": 6381,
      "ioned": 6382,
      "Ġdevi": 6383,
      "Ġpartner": 6384,
      "Ġsecretly": 6385,
      "umpet": 6386,
      "Ġdelay": 6387,
      "Ġpackage": 6388,
      "ahoo": 6389,
      "Ġà¤¬à¤°à¤ķà¤¤à¤µ": 6390,
      "Ge": 6391,
      "Ye": 6392,
      "Ġà¤ķà¤¦à¤®": 6393,
      "à¤¸à¤Ł": 6394,
      "Ġthrone": 6395,
      "Ġluck": 6396,
      "Ġleaving": 6397,
      "iece": 6398,
      "Ġexchange": 6399,
      "ironment": 6400,
      "ĠGehenna": 6401,
      "Dec": 6402,
      "ald": 6403,
      "che": 6404,
      "itions": 6405,
      "Ġà¤Ĩà¤¦à¤°": 6406,
      "ĠON": 6407,
      "Ġà¤¸à¤¹à¤ľ": 6408,
      "Ġspecial": 6409,
      "Ġdesist": 6410,
      "Ġdelight": 6411,
      "Ġcurs": 6412,
      "Ġparamet": 6413,
      "Ġicon": 6414,
      "Ġvalley": 6415,
      "Ah": 6416,
      "LDAP": 6417,
      "Rest": 6418,
      "Tar": 6419,
      "ao": 6420,
      "ml": 6421,
      "Ã¼": 6422,
      "Ġà¤¬à¤Ł": 6423,
      "à¤Łà¤ħà¤ª": 6424,
      "Ġfors": 6425,
      "rait": 6426,
      "Ġmaybe": 6427,
      "Ġspring": 6428,
      "Ġvisit": 6429,
      "Ġgovernment": 6430,
      "()": 6431,
      "Log": 6432,
      "Nothing": 6433,
      "Ġà¤ķà¤¸à¤®": 6434,
      "Ġaverse": 6435,
      "agement": 6436,
      "Ġunf": 6437,
      "others": 6438,
      "Ġovercome": 6439,
      "Ġgrain": 6440,
      "Ġmislead": 6441,
      "Ġbusy": 6442,
      "witch": 6443,
      "ilgrim": 6444,
      "à¤ªà¤¦": 6445,
      "Ġfet": 6446,
      "ĠLife": 6447,
      "à¤£à¤Ĺ": 6448,
      "ĠDate": 6449,
      "ertical": 6450,
      "ercent": 6451,
      "formed": 6452,
      "neath": 6453,
      "Ġlonger": 6454,
      "Ġprotection": 6455,
      "Hello": 6456,
      "Ġridic": 6457,
      "ĠGuardian": 6458,
      "\")": 6459,
      "Hold": 6460,
      "Ġnigh": 6461,
      "attered": 6462,
      "arning": 6463,
      "hil": 6464,
      "ĠLog": 6465,
      "ĠDet": 6466,
      "ĠCity": 6467,
      "Ġadvers": 6468,
      "Ġordered": 6469,
      "ĠTherefore": 6470,
      "\";": 6471,
      "ĭà¤£": 6472,
      "Ġdig": 6473,
      "Ġpages": 6474,
      "ĠAtt": 6475,
      "ĠUnbelievers": 6476,
      "Install": 6477,
      "Ġï¿½\\": 6478,
      ".).": 6479,
      "EE": 6480,
      "LI": 6481,
      "ince": 6482,
      "Ġbid": 6483,
      "Ġmil": 6484,
      "Ġmax": 6485,
      "atur": 6486,
      "à¤®à¤¨à¤ªà¤¸": 6487,
      "olog": 6488,
      "Ġearly": 6489,
      "Ġprint": 6490,
      "ĠToolbar": 6491,
      "ĠConnect": 6492,
      "nchron": 6493,
      "dr": 6494,
      "pter": 6495,
      "à¤µà¤¥": 6496,
      "ĠSab": 6497,
      "ĠJohn": 6498,
      "Ġà¥ļà¥Ľà¤¬": 6499,
      "gypt": 6500,
      "Ġcriminals": 6501,
      "Ste": 6502,
      "rat": 6503,
      "Ġdumb": 6504,
      "oding": 6505,
      "ĠMay": 6506,
      "Ġusage": 6507,
      "Ġupd": 6508,
      "ĠFrom": 6509,
      "inese": 6510,
      "Ġflowing": 6511,
      "Ġcharacters": 6512,
      "Ġdivorce": 6513,
      "40": 6514,
      "Taste": 6515,
      "mates": 6516,
      "ĭâĢĭ": 6517,
      "Ġwine": 6518,
      "Ġshir": 6519,
      "hod": 6520,
      "à¥Īà¤Ĥ;": 6521,
      "ĠAc": 6522,
      "Ġlower": 6523,
      "ĠâĢĭâĢĭ": 6524,
      "Ġgrad": 6525,
      "Ġsubmission": 6526,
      "Ġlooked": 6527,
      "Ġfinal": 6528,
      "aunch": 6529,
      "ĠGlory": 6530,
      "Ġstreams": 6531,
      "Eat": 6532,
      "Par": 6533,
      "à¤¾\"": 6534,
      "à¤°à¤Ĺà¤¤": 6535,
      "hearing": 6536,
      "à¤¹à¤®à¤¤": 6537,
      "à¤²à¤ı": 6538,
      "lly": 6539,
      "à¤¡à¤ķ": 6540,
      "Ġwee": 6541,
      "ignty": 6542,
      "ĠNe": 6543,
      "Ġcreates": 6544,
      "Ġà¤īà¤łà¤¤": 6545,
      "ĠVers": 6546,
      "mend": 6547,
      "supp": 6548,
      "Ġbuilt": 6549,
      "ĠAnjuta": 6550,
      "AV": 6551,
      "GL": 6552,
      "sue": 6553,
      "itch": 6554,
      "à¥Ľà¤ķ": 6555,
      "ithm": 6556,
      "thren": 6557,
      "Ġaltern": 6558,
      "aced": 6559,
      "Ġblow": 6560,
      "Ġgets": 6561,
      "suff": 6562,
      "Ġloading": 6563,
      "Brasero": 6564,
      "Ġflee": 6565,
      "Font": 6566,
      "een": 6567,
      "à¤¤à¤¨à¤¤": 6568,
      "ills": 6569,
      "ĠGroup": 6570,
      "ainted": 6571,
      "ĠTH": 6572,
      "usuf": 6573,
      "Ġaband": 6574,
      "Ġpermissions": 6575,
      "format": 6576,
      "Ġunderneath": 6577,
      "Ġopenly": 6578,
      "Ġacross": 6579,
      "Ġmailbox": 6580,
      "Ġpledge": 6581,
      "Ġclipboard": 6582,
      "15": 6583,
      "Det": 6584,
      "Page": 6585,
      "Ġbind": 6586,
      "à¤¾à¤ģ!": 6587,
      "ĠLam": 6588,
      "ican": 6589,
      "ĠPer": 6590,
      "Ġà¤Ĳà¤¬": 6591,
      "using": 6592,
      "Ġdisbelieving": 6593,
      "Stay": 6594,
      "Ġbrethren": 6595,
      "Ġstriving": 6596,
      "Ġà¤Ĩà¤Īà¤¡": 6597,
      "ATOR": 6598,
      "polytheists": 6599,
      "isco": 6600,
      "à¤¨à¤ľà¤¨à¤ķ": 6601,
      "hotos": 6602,
      "Day": 6603,
      "Truly": 6604,
      "Ġmus": 6605,
      "Ġhaven": 6606,
      "à¤«à¤¸": 6607,
      "Ġdoers": 6608,
      "Ġhor": 6609,
      "Ġornam": 6610,
      "ĠCall": 6611,
      "Ġnoble": 6612,
      "elt": 6613,
      "Ġdesign": 6614,
      "Ġresurrection": 6615,
      "Ġtribe": 6616,
      "Ġencrypt": 6617,
      "Ġbroke": 6618,
      "Ġrecognize": 6619,
      "Ġresponsible": 6620,
      "Co": 6621,
      "LO": 6622,
      "iet": 6623,
      "à¥įâĢį": 6624,
      "Ġfit": 6625,
      "Ġinn": 6626,
      "ĠAlexander": 6627,
      "Ġnecess": 6628,
      "ustra": 6629,
      "Ġfool": 6630,
      "aking": 6631,
      "Ġrank": 6632,
      "Ġindex": 6633,
      "Ġmisfort": 6634,
      "About": 6635,
      "Ġà¤²à¤¶à¤ķà¤°": 6636,
      "Ġsatisf": 6637,
      "Ġresurrected": 6638,
      "AS": 6639,
      "Today": 6640,
      "sist": 6641,
      "Ġing": 6642,
      "Ġwed": 6643,
      "ĠAt": 6644,
      "ample": 6645,
      "Ġprohi": 6646,
      "Ġsets": 6647,
      "ĠProtect": 6648,
      "Update": 6649,
      "Ġdebt": 6650,
      "Ġswallow": 6651,
      "CT": 6652,
      "RUN": 6653,
      "Two": 6654,
      "Ġà¤¸à¤¡": 6655,
      "à¤¼,": 6656,
      "Ġonline": 6657,
      "asing": 6658,
      "ĠMAPI": 6659,
      "Ġkin": 6660,
      "ĠHelp": 6661,
      "Ġsaving": 6662,
      "Ġpride": 6663,
      "Ġforgives": 6664,
      "Ġrock": 6665,
      "Ġdebug": 6666,
      "Te": 6667,
      "tar": 6668,
      "erved": 6669,
      "ana": 6670,
      "unishment": 6671,
      "before": 6672,
      "Ġoutside": 6673,
      "Init": 6674,
      "Ġdeniers": 6675,
      "Ġflag": 6676,
      "ANT": 6677,
      "Apply": 6678,
      "Ġencounter": 6679,
      "Ġabandon": 6680,
      "GN": 6681,
      "Rot": 6682,
      "ded": 6683,
      "à¥Ĭ": 6684,
      "à¤¾!\"": 6685,
      "Ġwretched": 6686,
      "Ġgift": 6687,
      "ĠLine": 6688,
      "ĠSize": 6689,
      "Ġà¤¬à¤¨à¤¨": 6690,
      "iga": 6691,
      "licate": 6692,
      "Ġcareful": 6693,
      "Ġbroken": 6694,
      "Know": 6695,
      "kah": 6696,
      "leting": 6697,
      "Ġinmates": 6698,
      "Ġlikes": 6699,
      "ĠCh": 6700,
      "ĠNuh": 6701,
      "Ġà¤Ńà¤°à¤¨": 6702,
      "aiju": 6703,
      "Ġreminded": 6704,
      "Ġmortal": 6705,
      "Ġdisease": 6706,
      "à¤°à¤ªà¤¤": 6707,
      "à¤¼à¥ĭà¥¤": 6708,
      "Ġgun": 6709,
      "Ġà¤¹à¤®à¤®": 6710,
      "Ġwithhold": 6711,
      "ifth": 6712,
      "ĠBack": 6713,
      "ĠDisc": 6714,
      "ected": 6715,
      "Ġwouldn": 6716,
      "Ġadorn": 6717,
      "Ġcomput": 6718,
      "Ġscattered": 6719,
      "lessed": 6720,
      "Ġmemory": 6721,
      "Ġargue": 6722,
      "Ġcease": 6723,
      "ĠEverlasting": 6724,
      "Ġunbelief": 6725,
      "Ġbellies": 6726,
      "Cancel": 6727,
      ",'": 6728,
      "à¤®à¤§": 6729,
      "à¤Ĺà¤²à¤¤": 6730,
      "Ġcrit": 6731,
      "aint": 6732,
      "ĠDad": 6733,
      "Ġexper": 6734,
      "Ġjoy": 6735,
      "aching": 6736,
      "wner": 6737,
      "Ġobeyed": 6738,
      "Ġpersist": 6739,
      "à¤ĳà¤¡": 6740,
      "GHS": 6741,
      "Ġtranslated": 6742,
      "Ġdegrees": 6743,
      "Until": 6744,
      "Ġaid": 6745,
      "à¤µà¤ľà¤¨": 6746,
      "Ġà¤µà¤°à¤¨": 6747,
      "Ġwear": 6748,
      "ĠGrace": 6749,
      "Ġdeceive": 6750,
      "Ġbackground": 6751,
      "Ġquar": 6752,
      "Ġboys": 6753,
      "Ġsilver": 6754,
      "Ġtranslate": 6755,
      "Ġtongues": 6756,
      "Ġsurrender": 6757,
      ";-": 6758,
      "PE": 6759,
      "dens": 6760,
      "eel": 6761,
      "lish": 6762,
      "Ġà¤¤à¤²à¤¬": 6763,
      "à¤Ĩà¤§": 6764,
      "icing": 6765,
      "Ġshade": 6766,
      "Ġtrash": 6767,
      "Ġjunk": 6768,
      "Ġsettle": 6769,
      "Stand": 6770,
      "Ġà¤ħà¤¸à¤¤": 6771,
      "Ġhumans": 6772,
      "mbol": 6773,
      "Ġfallen": 6774,
      "Editor": 6775,
      "ĠServer": 6776,
      "Ġbeware": 6777,
      "à¤Ĩà¤²": 6778,
      "imal": 6779,
      "Ġhire": 6780,
      "Ġproceed": 6781,
      "Ġcouldn": 6782,
      "Ġimportant": 6783,
      "ummary": 6784,
      "Ġseveral": 6785,
      "ĠPenalty": 6786,
      "Was": 6787,
      "à¤¦à¤¹": 6788,
      "à¤¼à¥ĭ,": 6789,
      "Ġanger": 6790,
      "Ġà¤¬à¤¨à¤¤": 6791,
      "à¤Ĳà¤¬": 6792,
      "Ġ''": 6793,
      "ĠEng": 6794,
      "Ġà¥ļà¤¨": 6795,
      "eces": 6796,
      "pleted": 6797,
      "Ġguardians": 6798,
      "ĠContacts": 6799,
      "Ġstrayed": 6800,
      "Filter": 6801,
      "Hi": 6802,
      "Zoom": 6803,
      "due": 6804,
      "pi": 6805,
      "Ġward": 6806,
      "Ġsqu": 6807,
      "à¤ªà¤ķà¤°": 6808,
      "ening": 6809,
      "otent": 6810,
      "Ġà¤¤à¤°à¤ķ": 6811,
      "Ġprec": 6812,
      "Ġshel": 6813,
      "Ġlasting": 6814,
      "Ġoffering": 6815,
      "Ġmidst": 6816,
      "Ġpagans": 6817,
      "Ġshirt": 6818,
      "AK": 6819,
      "Permiss": 6820,
      "Ġà¤ĭà¤£": 6821,
      "à¤¨City": 6822,
      "à¤¸City": 6823,
      "Ġà¤¨à¥ŀà¤¸": 6824,
      "Ġà¤¯à¤ķà¤¤": 6825,
      "Ġà¤«à¤²à¤ķ": 6826,
      "à¤§à¤°à¤¤": 6827,
      "Ġsugg": 6828,
      "akat": 6829,
      "Ġ14": 6830,
      "ishing": 6831,
      "ĠEurope": 6832,
      "Ġuseful": 6833,
      "Ġmisdeeds": 6834,
      "Ġstandard": 6835,
      "Ġtarried": 6836,
      "Ġcards": 6837,
      "Ġsupreme": 6838,
      "can": 6839,
      "iqu": 6840,
      "}\".": 6841,
      "Ġà¤ķà¤ªà¤¡": 6842,
      "inter": 6843,
      "isible": 6844,
      "ley": 6845,
      "ĠLeft": 6846,
      "raph": 6847,
      "ĠTaur": 6848,
      "Ġà¤Ľà¤¹": 6849,
      "Fuck": 6850,
      "Knower": 6851,
      "à¥ĩà¤Ĥà¥¤\"": 6852,
      "Ġsens": 6853,
      "Ġmouse": 6854,
      "Ġà¤ĩà¤¬à¤²": 6855,
      "Ġà¤ĩà¥ĺà¤°": 6856,
      "Ġà¤ĩà¥ŀà¤¤": 6857,
      "ĠHand": 6858,
      "Ġà¤«à¥Ľ": 6859,
      "Ġaccord": 6860,
      "Ġscroll": 6861,
      "Ġskins": 6862,
      "Ġbarren": 6863,
      "Ġextreme": 6864,
      "Ġfrust": 6865,
      "Ġdisputed": 6866,
      "sufficient": 6867,
      "Ġmisfortune": 6868,
      "Access": 6869,
      "Prom": 6870,
      "ares": 6871,
      "à¥Ģ?\"": 6872,
      "à¤¤à¤Ĺ": 6873,
      "à¤¬à¤¢": 6874,
      "Ġmot": 6875,
      "select": 6876,
      "idence": 6877,
      "à¤·à¤®à¤¤": 6878,
      "Ġthunder": 6879,
      "ĠIblis": 6880,
      "Ġamount": 6881,
      "Ġà¤Łà¤²": 6882,
      "Ġrising": 6883,
      "à¤¼à¥ĩ-": 6884,
      "Ġlock": 6885,
      "Ġprovides": 6886,
      "Ġrestri": 6887,
      "ighb": 6888,
      "Ġmagician": 6889,
      "Ġcalamity": 6890,
      "Ġfonts": 6891,
      "Ġabundant": 6892,
      "Ġsealed": 6893,
      "Highlight": 6894,
      "Ġpublished": 6895,
      "Car": 6896,
      "Path": 6897,
      "long": 6898,
      "inue": 6899,
      "ene": 6900,
      "Ġdry": 6901,
      "Ġnative": 6902,
      "Ġlines": 6903,
      "Ġà¥Ļà¥Ľ": 6904,
      "ĠMim": 6905,
      "ulate": 6906,
      "ourt": 6907,
      "Ġbliss": 6908,
      "Ġcreature": 6909,
      "Ġà¤®à¥Ľà¤¹à¤¬": 6910,
      "Ġcaut": 6911,
      "Ġdetail": 6912,
      "EX": 6913,
      "ELL": 6914,
      "MTP": 6915,
      "down": 6916,
      "uation": 6917,
      "à¥¦": 6918,
      "star": 6919,
      "ĠGood": 6920,
      "Ġperse": 6921,
      "à¥Ĥà¤Ĥà¥¤": 6922,
      "Ġactually": 6923,
      "Load": 6924,
      "Ġprofile": 6925,
      "Ġcorrupt": 6926,
      "Among": 6927,
      "Ġpraises": 6928,
      "ilgrimage": 6929,
      "ĠTaurat": 6930,
      "19": 6931,
      "Joseph": 6932,
      "Tab": 6933,
      "xis": 6934,
      "ĠMB": 6935,
      "Ġassemb": 6936,
      "ico": 6937,
      "ĠKnow": 6938,
      "reek": 6939,
      "alih": 6940,
      "Ġgodfearing": 6941,
      "Ġplaying": 6942,
      "Ġimmediately": 6943,
      "OK": 6944,
      "Windows": 6945,
      "bited": 6946,
      "iah": 6947,
      "à¥Ģ/": 6948,
      "itute": 6949,
      "Ġph": 6950,
      "à¤¶à¤¹": 6951,
      "Ġsumm": 6952,
      "ĠTRAN": 6953,
      "ĠPassword": 6954,
      "Ġspoken": 6955,
      "Ġsupposed": 6956,
      "ributed": 6957,
      "Ġpossessions": 6958,
      "Ġoppress": 6959,
      "Replace": 6960,
      "Ġcrazy": 6961,
      "Ġcounsel": 6962,
      "à¤¤à¤¬à¤²": 6963,
      "à¤µà¤¸à¤¨": 6964,
      "Ġinj": 6965,
      "ĠDon": 6966,
      "Ġyeah": 6967,
      "Ġà¤¸à¤¹à¤¨à¤¶": 6968,
      "Ġdesired": 6969,
      "Ġrestored": 6970,
      "\\\\\\\\": 6971,
      "Ġcompletely": 6972,
      "igrated": 6973,
      "ustralia": 6974,
      "Ac": 6975,
      "Rename": 6976,
      "à¤ıà¤ª": 6977,
      "Ġcache": 6978,
      "à¤ĸà¤¬à¤°": 6979,
      "Ġrename": 6980,
      "ĠShall": 6981,
      "lications": 6982,
      "going": 6983,
      "Allow": 6984,
      "iance": 6985,
      "inite": 6986,
      "à¤Ĺà¤ķà¤°": 6987,
      "Ġsal": 6988,
      "à¤ªà¤ħà¤ª": 6989,
      "Ġà¤Ĩà¤«à¤¤": 6990,
      "illic": 6991,
      "ĠSw": 6992,
      "ĠSam": 6993,
      "Ġconvers": 6994,
      "ushed": 6995,
      "Ġsole": 6996,
      "areth": 6997,
      "Ġkilling": 6998,
      "Read": 6999,
      "anguages": 7000,
      "Authentication": 7001,
      "Ġfinished": 7002,
      "Ġobjects": 7003,
      "Ġpieces": 7004,
      "Und": 7005,
      "Ġà¤²à¤Łà¤ķ": 7006,
      "rik": 7007,
      "Ġshut": 7008,
      "à¤Łà¤°à¤¨": 7009,
      "Ġcompass": 7010,
      "Ġobedience": 7011,
      "Ġendure": 7012,
      "ival": 7013,
      "ĠUniverse": 7014,
      "Plugin": 7015,
      "Ġwritable": 7016,
      "SLATOR": 7017,
      "URI": 7018,
      "Ġcouches": 7019,
      "Ġcautious": 7020,
      "ĠTRANSLATOR": 7021,
      "ĠTRANSLATORS": 7022,
      "IB": 7023,
      "Turn": 7024,
      "pet": 7025,
      "à¤¸à¤¦à¤¸": 7026,
      "à¤Ĺà¤¡": 7027,
      "Ġuh": 7028,
      "ĠWitness": 7029,
      "ĠGive": 7030,
      "rained": 7031,
      "Ġsaf": 7032,
      "ago": 7033,
      "Ġindic": 7034,
      "Ġpersec": 7035,
      "ĠTrans": 7036,
      "Ġmagicians": 7037,
      "Ġpenit": 7038,
      "Reset": 7039,
      "Ġmedia": 7040,
      "KCS": 7041,
      "Ġsummon": 7042,
      "ĠConfiguration": 7043,
      "Pri": 7044,
      "bum": 7045,
      "ipe": 7046,
      "Ġwhis": 7047,
      "Ġà¤¨à¤¦": 7048,
      "Ġfly": 7049,
      "Ġpolit": 7050,
      "arth": 7051,
      "ĠLex": 7052,
      "oples": 7053,
      "à¥ī)": 7054,
      "Ġà¤łà¤¨": 7055,
      "Ġpretty": 7056,
      "Ġsubst": 7057,
      "Ġrefuse": 7058,
      "Ġburdens": 7059,
      "Ġquestions": 7060,
      "ĠImport": 7061,
      "Ġovertook": 7062,
      "rehend": 7063,
      ")?\"": 7064,
      ".),": 7065,
      "Task": 7066,
      "hma": 7067,
      "ping": 7068,
      "sa": 7069,
      "Ġton": 7070,
      "Ġtax": 7071,
      "à¤¸à¤ĺ": 7072,
      "Ġcost": 7073,
      "ancy": 7074,
      "Ġrely": 7075,
      "à¤łà¤¹à¤°": 7076,
      "Ġascend": 7077,
      "terday": 7078,
      "ĠGodw": 7079,
      "Ġà¤²à¤Ĺà¤Ńà¤Ĺ": 7080,
      "Ġcommon": 7081,
      "ĠYusuf": 7082,
      "Ġclosed": 7083,
      "ogl": 7084,
      "ĠTrue": 7085,
      "Ġregret": 7086,
      "Ġtownship": 7087,
      "Ġsecrets": 7088,
      "Ġloaded": 7089,
      "Ġfulfill": 7090,
      "ĠDesktop": 7091,
      "Ġrules": 7092,
      "Ġsanct": 7093,
      "Ġsuggest": 7094,
      "MD": 7095,
      "fire": 7096,
      "wa": 7097,
      "à¥¥": 7098,
      "à¤®à¤ķà¤°à¤£": 7099,
      "à¤¸à¤ķà¤°": 7100,
      "à¤ģà¥¤\"": 7101,
      "Ġstar": 7102,
      "Ġnecks": 7103,
      "Ġgoods": 7104,
      "arest": 7105,
      "Ġador": 7106,
      "Ġà¤¡à¤°à¤¨": 7107,
      "Ġinvite": 7108,
      "Ġà¤¸à¤¦à¤ķ": 7109,
      "Before": 7110,
      "Ġbuy": 7111,
      "Ġsorce": 7112,
      "ĠMuslim": 7113,
      "Ġwatching": 7114,
      "Ġprevented": 7115,
      "Ġrealize": 7116,
      "Ġpicture": 7117,
      "kiga": 7118,
      "Ġreform": 7119,
      "aling": 7120,
      "à¤Ĩà¤¶": 7121,
      "Ġseas": 7122,
      "Ġparticip": 7123,
      "Ġinterced": 7124,
      "Ġpayment": 7125,
      "ĠBelieve": 7126,
      "Ġcalcul": 7127,
      "Ġshoot": 7128,
      "Ġlayout": 7129,
      "Ġwidget": 7130,
      "Ġmiracles": 7131,
      "Port": 7132,
      "la": 7133,
      "ral": 7134,
      "va": 7135,
      "isher": 7136,
      "Ġà¤°à¤µ": 7137,
      "Ġpred": 7138,
      "Ġà¤¸à¤°à¤²": 7139,
      "Ġà¤īà¤ªà¤ķ": 7140,
      "Ġwarrant": 7141,
      "Ġ50": 7142,
      "Ġparse": 7143,
      "Ġoperations": 7144,
      "Ġsimilitude": 7145,
      "Country": 7146,
      "Ġaforetime": 7147,
      "aib": 7148,
      "à¤Ĺà¤¸": 7149,
      "Ġà¤¨à¤¶": 7150,
      "à¥ĭà¤Ĥà¥¤": 7151,
      "à¤¼à¥°": 7152,
      "alks": 7153,
      "Ġshalt": 7154,
      "Ġexcess": 7155,
      "ĠNight": 7156,
      "Ġà¤īà¤ªà¤Ń": 7157,
      "Ġà¤ĳà¤¨à¤²": 7158,
      "Ġinformed": 7159,
      "Thou": 7160,
      "Ġdrawn": 7161,
      "Ġminds": 7162,
      "PS": 7163,
      "Ġflight": 7164,
      "Ġcamera": 7165,
      "Ġpiece": 7166,
      "Ġà¤ļà¤®à¤¤": 7167,
      "Ġheat": 7168,
      "Ġhears": 7169,
      "ĠST": 7170,
      "ĠCheck": 7171,
      "Ġuncle": 7172,
      "Ġanyway": 7173,
      "ĠYa": 7174,
      "Ġhatred": 7175,
      "Ġorders": 7176,
      "Ġmocked": 7177,
      "cery": 7178,
      "Ġauthentic": 7179,
      "Ġexcuse": 7180,
      "Ġtreaty": 7181,
      "Ġcloud": 7182,
      "Ġbehalf": 7183,
      "Ġsafety": 7184,
      "Dad": 7185,
      "Mighty": 7186,
      "ius": 7187,
      "pal": 7188,
      "part": 7189,
      "à¤°à¤ªà¤Ł": 7190,
      "à¤¹à¤¯": 7191,
      "estern": 7192,
      "à¤ĸà¤Ń": 7193,
      "amin": 7194,
      "à¥ľà¤Ĺ": 7195,
      "Ġà¤¸à¤®à¤¨": 7196,
      "ĠTable": 7197,
      "ĠCar": 7198,
      "Ġexalt": 7199,
      "Ġconject": 7200,
      "ĠFl": 7201,
      "Ġriches": 7202,
      "Ġ17": 7203,
      "Document": 7204,
      "Ġschool": 7205,
      "mankind": 7206,
      "Ġà¤ªà¤²à¤Łà¤ķà¤°": 7207,
      "Ġindecency": 7208,
      "zilla": 7209,
      "à¤Ĥ.": 7210,
      "à¤¼à¥ĩà¥¤": 7211,
      "à¤¶à¤²": 7212,
      "Ġà¤Ĩà¤¹": 7213,
      "Ġang": 7214,
      "ĠPeace": 7215,
      "Ġallies": 7216,
      "emplate": 7217,
      "Ġunc": 7218,
      "Ġspouses": 7219,
      "alimun": 7220,
      "Ġcrime": 7221,
      "Ġscheme": 7222,
      ";\"": 7223,
      "CR": 7224,
      "IV": 7225,
      "Yahoo": 7226,
      "à¤°à¤ĸ": 7227,
      "à¤Łà¤¸": 7228,
      "Ġrevi": 7229,
      "ĠMid": 7230,
      "ĠMake": 7231,
      "clude": 7232,
      "à¤¼à¥ĩà¤Ĥ...": 7233,
      "Ġeverlasting": 7234,
      "Export": 7235,
      "Ġutterly": 7236,
      "Ġproperly": 7237,
      "360": 7238,
      "Cisco": 7239,
      "Tom": 7240,
      "co": 7241,
      "rid": 7242,
      "Ġà¤¹à¥Ľ": 7243,
      "Ġà¤¸à¤ªà¤¨": 7244,
      "Ġà¤¦à¥ŀ": 7245,
      "enu": 7246,
      "Ġgentle": 7247,
      "Ġlust": 7248,
      "ĠSup": 7249,
      "Ġsaith": 7250,
      "Ġ25": 7251,
      "Ġchoice": 7252,
      "Ġpurified": 7253,
      "ĠZalimun": 7254,
      "ĠRemember": 7255,
      "ĠXML": 7256,
      "Short": 7257,
      "Ġancient": 7258,
      "Empty": 7259,
      "17": 7260,
      "Switch": 7261,
      "Ġaright": 7262,
      "à¤¦à¤µ": 7263,
      "Ġfresh": 7264,
      "Ġcred": 7265,
      "à¤ĸà¤£": 7266,
      "Ġnotification": 7267,
      "Ġà¤ĸà¤¨": 7268,
      "aled": 7269,
      "Ġpeoples": 7270,
      "Ġ11": 7271,
      "acing": 7272,
      "plit": 7273,
      "Ġserious": 7274,
      "Selected": 7275,
      "Ġmeaning": 7276,
      "Subject": 7277,
      "Ġeffort": 7278,
      "ometimes": 7279,
      "Data": 7280,
      "gor": 7281,
      "à¥Ĥ.": 7282,
      "Ġder": 7283,
      "ĠMic": 7284,
      "ĠSu": 7285,
      "ĠSome": 7286,
      "ĠHey": 7287,
      "à¤Ŀà¤ķ": 7288,
      "Ġstone": 7289,
      "Ġexit": 7290,
      "Weather": 7291,
      "Ġworked": 7292,
      "Ġgrand": 7293,
      "ĠMaryam": 7294,
      "CKS": 7295,
      "Ġintell": 7296,
      "Ġoriginal": 7297,
      "Ġcursor": 7298,
      "hmael": 7299,
      ",âĢĻ": 7300,
      "Object": 7301,
      "SS": 7302,
      "cies": 7303,
      "nes": 7304,
      "oug": 7305,
      "Ġbank": 7306,
      "Ġà¤²à¤¹à¤°": 7307,
      "ster": 7308,
      "à¤ķà¤°à¤¨": 7309,
      "Ġneighb": 7310,
      "abber": 7311,
      "Ġlex": 7312,
      "Ġoffice": 7313,
      "Ġslew": 7314,
      "Ġsorcerer": 7315,
      ")âĢ¦": 7316,
      "qun": 7317,
      "ris": 7318,
      "Ġavert": 7319,
      "Ġfra": 7320,
      "Ġpour": 7321,
      "Ġemer": 7322,
      "Ġà¤ĩà¤¶": 7323,
      "ĠBar": 7324,
      "Ġotherwise": 7325,
      "Ġhosp": 7326,
      "Ġà¤ħà¤§à¤°": 7327,
      "Ġquite": 7328,
      "ĠInc": 7329,
      "ritable": 7330,
      "Ġ2001": 7331,
      "IST": 7332,
      "Ġsorcery": 7333,
      "Ġadvance": 7334,
      "ounced": 7335,
      "Ġexcuses": 7336,
      "URL": 7337,
      "yrillic": 7338,
      "Ġarmies": 7339,
      "Audio": 7340,
      "gest": 7341,
      "Ġà¤¤à¤¦": 7342,
      "Ġphotos": 7343,
      "Ġeur": 7344,
      "eter": 7345,
      "ĠHearer": 7346,
      "Ġtrad": 7347,
      "Ġworth": 7348,
      "istr": 7349,
      "ears": 7350,
      "ĠEgypt": 7351,
      "Ġrecon": 7352,
      "à¤®à¤°à¤£": 7353,
      "ĠValue": 7354,
      "Ġvert": 7355,
      "Ġbooks": 7356,
      "Ġsitting": 7357,
      "Ġseems": 7358,
      "à¤ªà¤¶à¤ª": 7359,
      "Ġmillion": 7360,
      "Draw": 7361,
      "TY": 7362,
      "cal": 7363,
      "à¤ķà¤ļà¤°": 7364,
      "Ġsad": 7365,
      "à¤¼)": 7366,
      "Ġnig": 7367,
      "Ġà¤Ĩà¤°à¥Ľ": 7368,
      "Ġweap": 7369,
      "ĠSal": 7370,
      "Ġhuh": 7371,
      "Ġstrait": 7372,
      "Ġdisbelieves": 7373,
      "Ġguideth": 7374,
      "Ġpromises": 7375,
      "Ġflags": 7376,
      "Ġfamili": 7377,
      "Ġhonourable": 7378,
      "Ġcondem": 7379,
      "Ġstrugg": 7380,
      "supported": 7381,
      "some": 7382,
      "erred": 7383,
      "Ġà¤ħà¤¹à¤¦": 7384,
      "à¤ļà¤ķà¤°": 7385,
      "ĠLook": 7386,
      "ĠGospel": 7387,
      "Ġenable": 7388,
      "Ġpresident": 7389,
      "Ġdistance": 7390,
      "Ġharmdoers": 7391,
      "ĠBelievers": 7392,
      "ategories": 7393,
      "Prompt": 7394,
      "Cyrillic": 7395,
      "cil": 7396,
      "olders": 7397,
      "yth": 7398,
      "à¤²à¤®à¤¨": 7399,
      "rev": 7400,
      "Ġà¤¤à¤µ": 7401,
      "à¤Ĺà¤łà¤¨": 7402,
      "see": 7403,
      "rive": 7404,
      "ĠMiB": 7405,
      "rage": 7406,
      "oper": 7407,
      "Ġexerc": 7408,
      "ĠNone": 7409,
      "Ġà¤Łà¤°": 7410,
      "Ġà¤¸à¤®à¤Ŀà¤¦": 7411,
      "Ġsport": 7412,
      "Ġcommandment": 7413,
      "Ġcertainty": 7414,
      "Ġprostrating": 7415,
      "Serv": 7416,
      "Specify": 7417,
      "ĠEnc": 7418,
      "Ġdisobedience": 7419,
      "Ġgarments": 7420,
      "Ġiron": 7421,
      "à¤©": 7422,
      "à¤¸à¤«": 7423,
      "arms": 7424,
      "ĠSalih": 7425,
      "ĠPart": 7426,
      "Ġnights": 7427,
      "Ġdevour": 7428,
      "Ġhandle": 7429,
      "ĠSelection": 7430,
      "Ġstrengthened": 7431,
      "camel": 7432,
      "Ġadversity": 7433,
      "ython": 7434,
      "Jack": 7435,
      "POP": 7436,
      "à¥ĩ\"": 7437,
      "Ġtag": 7438,
      "Ġawe": 7439,
      "Ġà¤¬à¥Ļ": 7440,
      "Ġreaches": 7441,
      "hift": 7442,
      "urk": 7443,
      "ĠSource": 7444,
      "ushing": 7445,
      "Welcome": 7446,
      "wel": 7447,
      "Ġaddresses": 7448,
      "âĢľ%": 7449,
      "Copying": 7450,
      "compassionate": 7451,
      "Ġvirtue": 7452,
      "Ġdreams": 7453,
      "Description": 7454,
      "Ġornaments": 7455,
      "Ġadornment": 7456,
      ",âĢĿ": 7457,
      "CO": 7458,
      "Empathy": 7459,
      "Uh": 7460,
      "Ġà¤¬à¤ļà¤¨": 7461,
      "Ġplead": 7462,
      "ĠAut": 7463,
      "Ġà¤ıà¤ļ": 7464,
      "à¤īà¤²à¤Ł": 7465,
      "loy": 7466,
      "Ġcold": 7467,
      "Debug": 7468,
      "Ġà¤Ŀà¤Ĺà¥ľà¤¤": 7469,
      "Ġincline": 7470,
      "Ġbalance": 7471,
      "Ġinnoc": 7472,
      "22": 7473,
      "Account": 7474,
      "Post": 7475,
      "good": 7476,
      "Ġà¤ķà¤¸": 7477,
      "Ġsite": 7478,
      "à¤ªà¤µ": 7479,
      "Ġbag": 7480,
      "Ġbutt": 7481,
      "ĠFont": 7482,
      "ques": 7483,
      "Ġ13": 7484,
      "ĠEm": 7485,
      "Ġbetray": 7486,
      "Ġentr": 7487,
      "Ġscoff": 7488,
      "Ġdisclose": 7489,
      "Ġrequited": 7490,
      "Ġhappens": 7491,
      "Ġ2000": 7492,
      "trl": 7493,
      "Ġwithdraw": 7494,
      "Book": 7495,
      "GRUN": 7496,
      "Sm": 7497,
      "bon": 7498,
      "pg": 7499,
      "heart": 7500,
      "ĠWindows": 7501,
      "urg": 7502,
      "ĠLight": 7503,
      "ĠSim": 7504,
      "raft": 7505,
      "Ġsender": 7506,
      "à¥Ĥà¤ģ)": 7507,
      "Ġbrow": 7508,
      "aps": 7509,
      "attern": 7510,
      "bolic": 7511,
      "Ġhappiness": 7512,
      "OUT": 7513,
      "Automatically": 7514,
      "Ġruined": 7515,
      "MSN": 7516,
      "Ġrejo": 7517,
      "Ġcomputer": 7518,
      "ĠGodwary": 7519,
      "AIM": 7520,
      "Light": 7521,
      "Top": 7522,
      "point": 7523,
      "à¥Ģà¤ĥ": 7524,
      "Ġà¤¬à¤¹à¤¤": 7525,
      "à¤ıà¤°": 7526,
      "uls": 7527,
      "Ġdisre": 7528,
      "à¤¨à¤¤à¤¦": 7529,
      "aked": 7530,
      "Ġarrest": 7531,
      "Ġresource": 7532,
      "cially": 7533,
      "Ġobtain": 7534,
      "Ġinflict": 7535,
      "Ġ2002": 7536,
      "Ġgeneration": 7537,
      "Ġsexual": 7538,
      "ĠPresident": 7539,
      "Ġvillage": 7540,
      "Ġtypes": 7541,
      "Ġachieve": 7542,
      "Praise": 7543,
      "à¤¾%": 7544,
      "à¤¾:%": 7545,
      "itor": 7546,
      "Ġdanger": 7547,
      "omb": 7548,
      "irth": 7549,
      "Ġdeem": 7550,
      "ĠTake": 7551,
      "ĠCause": 7552,
      "Ġextend": 7553,
      "à¤ĩà¤²à¤¨": 7554,
      "ffect": 7555,
      "à¤īà¤¸à¤ªà¤°": 7556,
      "Ġemp": 7557,
      "ĠAsk": 7558,
      "Maximum": 7559,
      "ĠBounty": 7560,
      "Ã¼h": 7561,
      "Ġsummary": 7562,
      "Mak": 7563,
      "iant": 7564,
      "ique": 7565,
      "ming": 7566,
      "Ġà¤ķà¤ªà¥ľ": 7567,
      "orrect": 7568,
      "Ġcook": 7569,
      "omain": 7570,
      "Ġà¤ļà¤¹à¤°": 7571,
      "urt": 7572,
      "à¤ħà¤°à¤¬": 7573,
      "ila": 7574,
      "Ġexpel": 7575,
      "Ġupdate": 7576,
      "ppers": 7577,
      "Imp": 7578,
      "Ġexposed": 7579,
      "Ġrelative": 7580,
      "Ġsurround": 7581,
      "olume": 7582,
      "ĠPrayer": 7583,
      "à¤īà¤ªà¤²à¤¬": 7584,
      "Ġattachments": 7585,
      "Ġarrive": 7586,
      "Ġmiddle": 7587,
      "Ġexactly": 7588,
      "Ġretrieve": 7589,
      "Fire": 7590,
      "Left": 7591,
      "Uri": 7592,
      "reg": 7593,
      "à¥Ĥ)": 7594,
      "Ġpaper": 7595,
      "ani": 7596,
      "à¤Ķà¤°à¤¤": 7597,
      "ĠMod": 7598,
      "rase": 7599,
      "unction": 7600,
      "antic": 7601,
      "Ġ'.": 7602,
      "Ġlear": 7603,
      "ĠEast": 7604,
      "à¤¦à¤°à¤ĸ": 7605,
      "ĠUse": 7606,
      "Ġplayed": 7607,
      "Ġtransgression": 7608,
      "ONE": 7609,
      "Ġstronger": 7610,
      "Extract": 7611,
      "ordinate": 7612,
      "Ã¼hrer": 7613,
      "**": 7614,
      "uced": 7615,
      "Ġsnow": 7616,
      "à¤ªà¤¹à¤°": 7617,
      "Ġbears": 7618,
      "à¤Ńà¤µà¤¤": 7619,
      "Ġexternal": 7620,
      "olf": 7621,
      "Ġà¤¦à¤°à¤¬": 7622,
      "Ġdenies": 7623,
      "Ġtempt": 7624,
      "Ġrule": 7625,
      "Ġarrived": 7626,
      "Ġcolors": 7627,
      "TLS": 7628,
      "Vertical": 7629,
      "card": 7630,
      "ich": 7631,
      "mity": 7632,
      "Ġà¤ľà¥ľ": 7633,
      "Ġà¤Ĩà¤Ĭ": 7634,
      "Ġlab": 7635,
      "ĠLut": 7636,
      "ĠCertainly": 7637,
      "Ġguests": 7638,
      "Ġneeded": 7639,
      "crease": 7640,
      "Ġharvest": 7641,
      "ĠItem": 7642,
      "ARS": 7643,
      "Ġmailing": 7644,
      "Ġà¤Ĩà¤¸à¤ª": 7645,
      "Ġfalls": 7646,
      "Ġframe": 7647,
      "Ġmarked": 7648,
      "Ġadmitted": 7649,
      "Ġexpects": 7650,
      "ĠLexUri": 7651,
      "ĠLexUriServ": 7652,
      "=\\\\\\\\": 7653,
      "ganiz": 7654,
      "à¤®à¤ı": 7655,
      "Ġsatan": 7656,
      "Ġà¤ħà¥ŀà¤¸": 7657,
      "Ġmat": 7658,
      "Ġbeat": 7659,
      "ille": 7660,
      "ĠWest": 7661,
      "Ġlat": 7662,
      "à¤ĩà¤µà¤°": 7663,
      "Ġant": 7664,
      "ĠCurrent": 7665,
      "fell": 7666,
      "iali": 7667,
      "Ġobst": 7668,
      "Ġpursued": 7669,
      "Ġrequested": 7670,
      "Ġtreasures": 7671,
      "Cut": 7672,
      "Horizontal": 7673,
      "PO": 7674,
      "action": 7675,
      "à¤ķà¤ķ": 7676,
      "à¤Ĺà¤¹à¤°": 7677,
      "Ġpick": 7678,
      "à¤¡à¤¬à¤²": 7679,
      "Ġrect": 7680,
      "à¥Ľà¤°à¤¤": 7681,
      "à¥ĺà¤¬": 7682,
      "Ġshape": 7683,
      "ĠBo": 7684,
      "ĠOff": 7685,
      "olt": 7686,
      "Ġbran": 7687,
      "Ġlikely": 7688,
      "ounded": 7689,
      "Ġbreast": 7690,
      "Ġincreases": 7691,
      "Ġrequests": 7692,
      "Ġlinks": 7693,
      "Ġkids": 7694,
      ")'": 7695,
      "Hast": 7696,
      "Main": 7697,
      "fl": 7698,
      "uj": 7699,
      "Ġstern": 7700,
      "Ġbase": 7701,
      "Ġoften": 7702,
      "Ġnature": 7703,
      "ĠIP": 7704,
      "adu": 7705,
      "ĠSupp": 7706,
      "Ġhun": 7707,
      "ula": 7708,
      "Ġ23": 7709,
      "Ġsigned": 7710,
      "Ġà¥ļà¤²à¤¤": 7711,
      "ubb": 7712,
      "Ġmoved": 7713,
      "Ġdiscourse": 7714,
      "Ġà¤®à¤¸à¥Ļà¤°": 7715,
      "ATE": 7716,
      "Ġburned": 7717,
      "conf": 7718,
      "Ġshot": 7719,
      "Ġhusbands": 7720,
      "Meeting": 7721,
      "true": 7722,
      "Ġdevoted": 7723,
      "Ġpixels": 7724,
      "ĠProtector": 7725,
      "Cha": 7726,
      "La": 7727,
      "TH": 7728,
      "bus": 7729,
      "à¤®à¤ļ": 7730,
      "à¤¯à¥ĺ": 7731,
      "à¤ªà¤¸à¤¨": 7732,
      "à¤¬à¤Ĺà¤°": 7733,
      "Ġble": 7734,
      "itive": 7735,
      "à¤ıà¤¡": 7736,
      "Ġyield": 7737,
      "Ġcow": 7738,
      "Ġnay": 7739,
      "à¤¾,)": 7740,
      "Ġallows": 7741,
      "Ġdistingu": 7742,
      "Ġprogress": 7743,
      "ĠKaiju": 7744,
      "à¥Ĥà¤Ĥ,": 7745,
      "Ġà¤®à¤¹à¥Ľ": 7746,
      "angle": 7747,
      "Ġslot": 7748,
      "Ġinspir": 7749,
      "Ġmiser": 7750,
      "Ġbookmarks": 7751,
      "Ġbird": 7752,
      "Everything": 7753,
      "Ġladen": 7754,
      "Ġtonight": 7755,
      "//": 7756,
      "mble": 7757,
      "vation": 7758,
      "erge": 7759,
      "eder": 7760,
      "Ġcru": 7761,
      "à¤īà¤ļ": 7762,
      "Ġsail": 7763,
      "Ġprove": 7764,
      "à¤¾à¤Ĥ,": 7765,
      "à¤¦à¤°à¤µ": 7766,
      "Ġà¤Ĩà¤Ĺà¤µ": 7767,
      "Ġrecently": 7768,
      "Ġjustly": 7769,
      "appe": 7770,
      "dened": 7771,
      "Ġworshipers": 7772,
      "Ġresting": 7773,
      "ellation": 7774,
      "Ġpresented": 7775,
      "Ġtemplate": 7776,
      "Ġrecorded": 7777,
      "Ġfabricated": 7778,
      "Ġà¤ļà¤®à¤ķà¤¤": 7779,
      "Local": 7780,
      "Mult": 7781,
      "PKCS": 7782,
      "ev": 7783,
      "nic": 7784,
      "oul": 7785,
      "Ġscre": 7786,
      "Ġà¤¨à¥ŀ": 7787,
      "Ġà¤¦à¤ķ": 7788,
      "à¤¡à¤µ": 7789,
      "Ġrehe": 7790,
      "ceived": 7791,
      "Ġkins": 7792,
      "Ġdisabled": 7793,
      "ĠFÃ¼hrer": 7794,
      "Ġriver": 7795,
      "Ġà¤ĩà¤¨à¤ª": 7796,
      "ĠJack": 7797,
      "Ġrecur": 7798,
      "lpha": 7799,
      "à¤°à¤¹à¤µ": 7800,
      "Ġrewards": 7801,
      "Alone": 7802,
      "Ġà¤īà¤²à¥ŀà¤¤": 7803,
      "Ġhonoured": 7804,
      "Ġclient": 7805,
      "Chinese": 7806,
      "Ġcelebrate": 7807,
      "ĠVerses": 7808,
      "Ġhospital": 7809,
      ",%": 7810,
      "Mal": 7811,
      "cho": 7812,
      "à¤ķà¤£": 7813,
      "Ġmodule": 7814,
      "Ġissue": 7815,
      "ĠId": 7816,
      "Ġstories": 7817,
      "too": 7818,
      "Ġpron": 7819,
      "Ġ24": 7820,
      "ĠJunk": 7821,
      "ĠStatus": 7822,
      "Ġdriver": 7823,
      "Ġveget": 7824,
      "Ġbitter": 7825,
      "Ġ(*.": 7826,
      "Ġcanceled": 7827,
      "ĠKingdom": 7828,
      "!)": 7829,
      "Line": 7830,
      "TK": 7831,
      "Us": 7832,
      "à¤ķCity": 7833,
      "Ġaxis": 7834,
      "Ġcenter": 7835,
      "lient": 7836,
      "idance": 7837,
      "abri": 7838,
      "ĠCol": 7839,
      "ĠOkay": 7840,
      "Ġrange": 7841,
      "Ġdidst": 7842,
      "tedly": 7843,
      "Ġgrave": 7844,
      "Ġà¤²à¥ľà¤¨": 7845,
      "Ġloveth": 7846,
      "riting": 7847,
      "Ġbeauty": 7848,
      "Ġmultiple": 7849,
      "Ġprinter": 7850,
      "Ref": 7851,
      "Size": 7852,
      "bet": 7853,
      "oon": 7854,
      "Ġwast": 7855,
      "Ġwary": 7856,
      "Ġmerc": 7857,
      "Ġpan": 7858,
      "oted": 7859,
      "ĠDPI": 7860,
      "ĠFull": 7861,
      "Ġholy": 7862,
      "rops": 7863,
      "Ġsendeth": 7864,
      "Ġdenying": 7865,
      "ĠMeeting": 7866,
      "haract": 7867,
      "Ġrequite": 7868,
      "Program": 7869,
      "HEAD": 7870,
      "Ġcrash": 7871,
      "Ġgirls": 7872,
      "à¤īà¤ªà¤ķà¤°à¤£": 7873,
      "oubtedly": 7874,
      "Ġdistinct": 7875,
      "100": 7876,
      "More": 7877,
      "gar": 7878,
      "à¤¿...": 7879,
      "isk": 7880,
      "ann": 7881,
      "anning": 7882,
      "iring": 7883,
      "ala": 7884,
      "ĠWis": 7885,
      "à¤Ĩà¤¡": 7886,
      "uding": 7887,
      "ĠMessiah": 7888,
      "Ġà¤®à¤¨à¤ªà¤¸": 7889,
      "Ġjudges": 7890,
      "Ġvisited": 7891,
      "Ġslaughter": 7892,
      "Ġniggard": 7893,
      "welve": 7894,
      "Sort": 7895,
      "whe": 7896,
      "white": 7897,
      "à¤ķà¤¹à¤¤": 7898,
      "Ġfre": 7899,
      "Ġfelt": 7900,
      "Ġdies": 7901,
      "ania": 7902,
      "à¤·à¤¸": 7903,
      "ĠChan": 7904,
      "Ġanymore": 7905,
      "Ġgiveth": 7906,
      "Ġà¤īà¤¤à¤°à¤¤": 7907,
      "Ġscatter": 7908,
      "Ġslow": 7909,
      "Ġkeeps": 7910,
      "Ġexistence": 7911,
      "Ġ90": 7912,
      "Ġrebellion": 7913,
      "Connection": 7914,
      "Ġfrustrate": 7915,
      "Him": 7916,
      "Try": 7917,
      "bers": 7918,
      "lining": 7919,
      "Ġà¤²à¤ľ": 7920,
      "aru": 7921,
      "Ġgames": 7922,
      "Ġstuff": 7923,
      "ĠDiv": 7924,
      "Ġexpelled": 7925,
      "Ġproport": 7926,
      "Ġprotocol": 7927,
      "assin": 7928,
      "Ġà¤Ĩà¤¦à¤¤": 7929,
      "achment": 7930,
      "ĠKey": 7931,
      "Ġloan": 7932,
      "Ġforged": 7933,
      "ĠIshmael": 7934,
      "Ġquality": 7935,
      "plement": 7936,
      "ĠStart": 7937,
      "Ġhighlight": 7938,
      "Ġinheritance": 7939,
      "Ġicons": 7940,
      "Ġpopup": 7941,
      "Ġconsequence": 7942,
      "Ġsolemn": 7943,
      "cuse": 7944,
      "ghan": 7945,
      "Ġà¤¬à¤ķà¤°": 7946,
      "Ġà¤°à¤ľ": 7947,
      "à¤Łà¤ķà¤¤": 7948,
      "Ġà¤ªà¤°à¤¤": 7949,
      "à¤Īà¤µ": 7950,
      "Ġà¤«à¤¤": 7951,
      "ented": 7952,
      "ifier": 7953,
      "Ġsel": 7954,
      "Ġsus": 7955,
      "ĠBrow": 7956,
      "Ġexclus": 7957,
      "Ġabiding": 7958,
      "Ġspoke": 7959,
      "Ġapplications": 7960,
      "Ġencryption": 7961,
      "Salat": 7962,
      "Ġdisregard": 7963,
      "Again": 7964,
      "Java": 7965,
      "ape": 7966,
      "bath": 7967,
      "rad": 7968,
      "velation": 7969,
      "ĠAnt": 7970,
      "à¤¥à¤µ": 7971,
      "Ġlod": 7972,
      "Ġcomb": 7973,
      "ĠChar": 7974,
      "Ġdisd": 7975,
      "urning": 7976,
      "quer": 7977,
      "ĠRam": 7978,
      "igned": 7979,
      "à¤ĩà¤¸à¤ªà¤°": 7980,
      "Ġà¤®à¤¦à¤¯à¤¨": 7981,
      "Ġcloser": 7982,
      "Ġattention": 7983,
      "avan": 7984,
      "Ġreceiving": 7985,
      "Ġstartup": 7986,
      "Ġsuffices": 7987,
      "Ġexpression": 7988,
      "Ġstatement": 7989,
      "à¤ıà¤ļà¤Ł": 7990,
      "italy": 7991,
      "Ġopin": 7992,
      "Ġhunger": 7993,
      "Ġà¤ķà¥Ľ": 7994,
      "Ġà¤¤à¤«à¤¸": 7995,
      "Ġband": 7996,
      "Ġcent": 7997,
      "à¥Ģà¤Ĥ;": 7998,
      "Ġthine": 7999,
      "Ġà¤Ĩà¤ªà¤¦": 8000,
      "ĠDown": 8001,
      "ĠOwner": 8002,
      "Ġà¤¬à¤¦à¤ļà¤²à¤¨": 8003,
      "Ġ18": 8004,
      "Ġyellow": 8005,
      "Ġenmity": 8006,
      "ĠJust": 8007,
      "Ġhumility": 8008,
      "Ġsuffice": 8009,
      "Ġbuff": 8010,
      "Ġsuccessors": 8011,
      "Ġ60": 8012,
      "Ġgreet": 8013,
      "Ġconfirmation": 8014,
      "à¥Ģ''": 8015,
      "Ġinnocent": 8016,
      ";.": 8017,
      "@}": 8018,
      "Bad": 8019,
      "NT": 8020,
      "ront": 8021,
      "à¥ģ,": 8022,
      "à¥Ī]": 8023,
      "hant": 8024,
      "Ġà¤¨à¤°à¤ķ": 8025,
      "Ġfash": 8026,
      "Ġduration": 8027,
      "Ġà¤ĩà¤¦": 8028,
      "Ġà¤ĩà¥Ļà¤¤": 8029,
      "illy": 8030,
      "Ġà¤ľà¤¬à¤¤à¤ķ": 8031,
      "Ġà¥ĺà¤¦": 8032,
      "Ġproved": 8033,
      "bered": 8034,
      "ĠFear": 8035,
      "Ġjack": 8036,
      "elf": 8037,
      "à¤ķà¤Łà¤µà¤°": 8038,
      "Ġtrusted": 8039,
      "expected": 8040,
      "menu": 8041,
      "Ġholding": 8042,
      "ĠViewer": 8043,
      "ĠMajestic": 8044,
      "Ġintercede": 8045,
      "Ġfamilies": 8046,
      "abriel": 8047,
      "ool": 8048,
      "power": 8049,
      "xic": 8050,
      "ÃĹ": 8051,
      "Ġà¤ħà¤ĸ": 8052,
      "Ġdim": 8053,
      "Ġdamn": 8054,
      "Ġcamp": 8055,
      "Ġetern": 8056,
      "ĠHud": 8057,
      "ĠMag": 8058,
      "Ġweigh": 8059,
      "ĠTor": 8060,
      "hanks": 8061,
      "ĠRed": 8062,
      "ĠRead": 8063,
      "together": 8064,
      "ackage": 8065,
      "overe": 8066,
      "Ġbackup": 8067,
      "Ġà¥ļà¤®": 8068,
      "Ġblast": 8069,
      "Ġblazing": 8070,
      "Ġowners": 8071,
      "à¤ħà¤Ĺà¤°à¤ļ": 8072,
      "Ġlocally": 8073,
      "Ġgenerous": 8074,
      "Ġà¤Ŀà¤Ĺà¥ľà¤¨": 8075,
      "Ġanimal": 8076,
      "Query": 8077,
      "Ġresults": 8078,
      "://": 8079,
      "Network": 8080,
      "Tra": 8081,
      "mac": 8082,
      "sv": 8083,
      "Ġtim": 8084,
      "Ġwax": 8085,
      "Ġbas": 8086,
      "Ġfuel": 8087,
      "arls": 8088,
      "à¤ļà¤µ": 8089,
      "Ġrender": 8090,
      "idget": 8091,
      "ĠHam": 8092,
      "à¤Ńà¤Ĺà¤µ": 8093,
      "ĠSte": 8094,
      "ĠRet": 8095,
      "Ġquery": 8096,
      "Ġsuppose": 8097,
      "Ġà¤²à¥ľà¤¤": 8098,
      "ĠAssist": 8099,
      "Ġdifferences": 8100,
      "Ġgreeting": 8101,
      "Ġmethod": 8102,
      "ESS": 8103,
      "ĠSeeing": 8104,
      "Ġà¤¬à¤Ľà¥ľ": 8105,
      "Ġangry": 8106,
      "Ġbrowser": 8107,
      "LAR": 8108,
      "PGP": 8109,
      "aired": 8110,
      "ka": 8111,
      "spe": 8112,
      "à¤¸à¥Ľ": 8113,
      "Ġà¤ªà¤Ľà¤¤": 8114,
      "Ġfount": 8115,
      "Ġpoints": 8116,
      "Ġpercent": 8117,
      "ĠAh": 8118,
      "Ġà¤Ĺà¤¡": 8119,
      "ĠLocation": 8120,
      "à¤Ĩà¤¦": 8121,
      "Ġsection": 8122,
      "Ġneck": 8123,
      "ĠDi": 8124,
      "Ġexh": 8125,
      "usa": 8126,
      "Ġletter": 8127,
      "à¤«à¤²à¤ķ": 8128,
      "pleased": 8129,
      "Everyone": 8130,
      "ĠArk": 8131,
      "Ġexecut": 8132,
      "Ġcrooked": 8133,
      "gorithm": 8134,
      "Ġexercise": 8135,
      "Ġselves": 8136,
      "GE": 8137,
      "Ġnumer": 8138,
      "ati": 8139,
      "Ġbeasts": 8140,
      "à¤Ľà¤ª": 8141,
      "ĠWIT": 8142,
      "ops": 8143,
      "Ġcompens": 8144,
      "Ġmere": 8145,
      "ĠCertificate": 8146,
      "à¤¨à¤¤à¤µ": 8147,
      "engers": 8148,
      "acha": 8149,
      "ception": 8150,
      "Ġfearing": 8151,
      "Ġrarely": 8152,
      "Ġboard": 8153,
      "ĠUser": 8154,
      "Ġkeeping": 8155,
      "avig": 8156,
      "Ġprotectors": 8157,
      "Ġprostration": 8158,
      "Automatic": 8159,
      "Ġfabricate": 8160,
      "Busy": 8161,
      "Due": 8162,
      "had": 8163,
      "Ġbore": 8164,
      "edia": 8165,
      "à¤ıà¤Łà¤²": 8166,
      "Ġà¤ªà¤°à¤²": 8167,
      "ĠWH": 8168,
      "rabs": 8169,
      "ĠFOR": 8170,
      "Ġunits": 8171,
      "ĠEarth": 8172,
      "Ġshout": 8173,
      "ctionary": 8174,
      "Ġretreat": 8175,
      "ĠWhosoever": 8176,
      "Ġroof": 8177,
      "Ġdefined": 8178,
      "Ġaccepts": 8179,
      "Ġstrange": 8180,
      "Upon": 8181,
      "Ġcollect": 8182,
      "Ġseparated": 8183,
      "Ġpackages": 8184,
      "ĠCompan": 8185,
      "Ġà¤¬à¤°à¤¤à¤°": 8186,
      "Missing": 8187,
      "Ġheirs": 8188,
      "Ġbuttons": 8189,
      "(\"": 8190,
      "Ap": 8191,
      "CMS": 8192,
      "While": 8193,
      "lah": 8194,
      "à¤®à¥Ľ": 8195,
      "reth": 8196,
      "Ġdow": 8197,
      "Ġma": 8198,
      "Ġmales": 8199,
      "à¤¼à¤¿à¤Ĥ": 8200,
      "à¤ģ:": 8201,
      "Ġlic": 8202,
      "ĠCopy": 8203,
      "ĠOver": 8204,
      "ĠFlo": 8205,
      "udes": 8206,
      "Ġcomponent": 8207,
      "Ġaccur": 8208,
      "Ġobvious": 8209,
      "Ġà¤ĳà¤ªà¤°": 8210,
      "Ġtransgressed": 8211,
      "Ġoppressed": 8212,
      "Ġpersonal": 8213,
      "ministr": 8214,
      "ĠRemembrance": 8215,
      "Many": 8216,
      "Ġà¤ªà¤²à¤Łà¤¨": 8217,
      "Ġpractice": 8218,
      "symbols": 8219,
      "Neither": 8220,
      "ĠSabbath": 8221,
      "Ġupdated": 8222,
      "Ġshelter": 8223,
      "Acc": 8224,
      "Link": 8225,
      "]:": 8226,
      "vision": 8227,
      "Ġà¤ıà¤Ł": 8228,
      "Ġkde": 8229,
      "ĠSin": 8230,
      "aining": 8231,
      "ĠCMS": 8232,
      "Ġpermitted": 8233,
      "izes": 8234,
      "Whosoever": 8235,
      "Ġcorn": 8236,
      "Ġchecks": 8237,
      "Ġelement": 8238,
      "Ġthrown": 8239,
      "Ġrepeat": 8240,
      "Ġhumbled": 8241,
      "Region": 8242,
      "asphe": 8243,
      "ĠWisdom": 8244,
      "ghanistan": 8245,
      "cause": 8246,
      "epend": 8247,
      "ior": 8248,
      "Ġ+": 8249,
      "à¤Ĥ,": 8250,
      "Ġwh": 8251,
      "ino": 8252,
      "Ġbra": 8253,
      "à¤ģ)": 8254,
      "ĠMA": 8255,
      "Ġsequ": 8256,
      "Ġstood": 8257,
      "à¥ĥà¤Ĥ": 8258,
      "Ġ16": 8259,
      "ĠEmpathy": 8260,
      "Ġremem": 8261,
      "Ġarms": 8262,
      "Ġverify": 8263,
      "Ġwarners": 8264,
      "ips": 8265,
      "Couldn": 8266,
      "Ġsimple": 8267,
      "retch": 8268,
      "Ġcouple": 8269,
      "Burning": 8270,
      "Father": 8271,
      "Split": 8272,
      "Value": 8273,
      "gent": 8274,
      "uary": 8275,
      "à¤¿à¤ĥ": 8276,
      "Ġoce": 8277,
      "Ġbod": 8278,
      "ays": 8279,
      "Ġkings": 8280,
      "ĠLa": 8281,
      "ĠLu": 8282,
      "Ġhinder": 8283,
      "Ġusury": 8284,
      "Ġprev": 8285,
      "Ġcompet": 8286,
      "Ġadditional": 8287,
      "Believe": 8288,
      "Dev": 8289,
      "Ġthoughts": 8290,
      "Worship": 8291,
      "Ġquickly": 8292,
      "Ġbirthday": 8293,
      "à¤Ĩà¤īà¤Łà¤ª": 8294,
      "ĠPraiseworthy": 8295,
      "Ġmutual": 8296,
      "Ġridicule": 8297,
      "\"{": 8298,
      "720": 8299,
      "CP": 8300,
      "à¥ĩ!\"": 8301,
      "Ġtwelve": 8302,
      "Ġsong": 8303,
      "Ġbefell": 8304,
      "Ġiniqu": 8305,
      "à¥Īà¤Ĥ-": 8306,
      "Ġnotifications": 8307,
      "ada": 8308,
      "Ġsuitable": 8309,
      "Ġmanagement": 8310,
      "Ġà¤¬à¤ļà¤¤": 8311,
      "Ġrepository": 8312,
      "Ġhowever": 8313,
      "Ġclosing": 8314,
      "Ġguarded": 8315,
      "ertificates": 8316,
      "Ġprostrated": 8317,
      "Ġadvant": 8318,
      "Ġexamples": 8319,
      "Ġvictorious": 8320,
      "Ġweakness": 8321,
      "Ġexpected": 8322,
      "Ġfields": 8323,
      "Ġdeluded": 8324,
      "ĠWITH": 8325,
      "iot": 8326,
      "Ġdam": 8327,
      "Ġcrow": 8328,
      "Ġlamp": 8329,
      "Ġwelcome": 8330,
      "ĠOther": 8331,
      "umin": 8332,
      "Ġgrants": 8333,
      "Ġà¤īà¤²à¤Ŀ": 8334,
      "Ġevident": 8335,
      "Ġmindful": 8336,
      "Ġfriendship": 8337,
      "ĠAny": 8338,
      "Ġdealt": 8339,
      "raphic": 8340,
      "Ġcirc": 8341,
      "Ġdreadful": 8342,
      "Ġnecessary": 8343,
      "13": 8344,
      "Paste": 8345,
      "Photo": 8346,
      "pre": 8347,
      "scribe": 8348,
      "Ġcrops": 8349,
      "à¤ľà¤Ĺ": 8350,
      "Ġà¤ıà¤ľ": 8351,
      "rived": 8352,
      "ĠSa": 8353,
      "iced": 8354,
      "ĠTe": 8355,
      "Ġusers": 8356,
      "istory": 8357,
      "ĠRa": 8358,
      "Ġplans": 8359,
      "à¤ĺà¤²": 8360,
      "vior": 8361,
      "Ġsheep": 8362,
      "Additional": 8363,
      "Ġtested": 8364,
      "Ġstarting": 8365,
      "Alas": 8366,
      "Ġexpand": 8367,
      "Ġdrinking": 8368,
      "Ġfalling": 8369,
      "Proclaim": 8370,
      "Ġholds": 8371,
      "Ġovertake": 8372,
      "System": 8373,
      "Ġfortune": 8374,
      "Ġniggardly": 8375,
      "Fin": 8376,
      "TER": 8377,
      "Under": 8378,
      "aly": 8379,
      "ked": 8380,
      "à¤°à¤§": 8381,
      "Ġbearing": 8382,
      "lib": 8383,
      "Ġà¤Ńà¤µà¤¨": 8384,
      "ĠTask": 8385,
      "ĠPri": 8386,
      "Ġtrade": 8387,
      "à¥Ĥà¤ģ...": 8388,
      "Ġà¤¬à¤¹à¤¸": 8389,
      "ĠRuss": 8390,
      "ofty": 8391,
      "eping": 8392,
      "Ġnormal": 8393,
      "Ġafterwards": 8394,
      "ointed": 8395,
      "Ġpartic": 8396,
      "Ġcaravan": 8397,
      "Ġchooses": 8398,
      "Ġintercessors": 8399,
      "KChar": 8400,
      "ALL": 8401,
      "Dr": 8402,
      "ED": 8403,
      "Qur": 8404,
      "Very": 8405,
      "hon": 8406,
      "subs": 8407,
      "ught": 8408,
      "à¤°à¤¹à¤®": 8409,
      "à¤¯à¤Ń": 8410,
      "Ġà¤¨à¤ª": 8411,
      "à¤¶à¤¹à¤°": 8412,
      "ota": 8413,
      "oto": 8414,
      "Ġà¤Ĺà¤°à¤¦": 8415,
      "hick": 8416,
      "Ġhealth": 8417,
      "Ġheels": 8418,
      "Ġwillingly": 8419,
      "à¤īà¤¹": 8420,
      "Ġstored": 8421,
      "à¥Ļà¤¬à¤°à¤¦": 8422,
      "oston": 8423,
      "aud": 8424,
      "Ġaggress": 8425,
      "Ġà¤¸à¤°à¤Ĺ": 8426,
      "Ġblasphe": 8427,
      "à¤ĺà¤¡": 8428,
      "Ġrepro": 8429,
      "Ġrepaid": 8430,
      "Format": 8431,
      "Ġpaths": 8432,
      "Ġfullscreen": 8433,
      "Ġchaste": 8434,
      "oys": 8435,
      "Ġstarts": 8436,
      "Ġformed": 8437,
      "Ġ40": 8438,
      "Ġconstant": 8439,
      "ĠIndian": 8440,
      "noon": 8441,
      "ROAN": 8442,
      "Ġsurrendered": 8443,
      "Ġmistake": 8444,
      "Initial": 8445,
      "ĠEnglish": 8446,
      "ĠMidian": 8447,
      "Ġlearned": 8448,
      "Ġà¤Ĺà¤°à¤¦à¤¨": 8449,
      ";}": 8450,
      "Ctrl": 8451,
      "lu": 8452,
      "Ġà¤ķà¤¸à¤°à¤¤": 8453,
      "enge": 8454,
      "à¤ıà¥ĺ": 8455,
      "Ġcross": 8456,
      "Ġmbox": 8457,
      "lement": 8458,
      "à¤ļà¤¢": 8459,
      "lihood": 8460,
      "Ġrelie": 8461,
      "Ġnotice": 8462,
      "Ġà¤Ĺà¤ªà¤¶à¤ª": 8463,
      "ĠMIME": 8464,
      "ĠLabel": 8465,
      "ĠBer": 8466,
      "ĠDO": 8467,
      "Ġcontext": 8468,
      "Ġà¤ĺà¤Łà¤ķ": 8469,
      "Ġcreating": 8470,
      "à¤ħà¤²à¤¬à¤¤": 8471,
      "Ġrestart": 8472,
      "Ġglass": 8473,
      "Think": 8474,
      "Ġintegr": 8475,
      "Ġexplained": 8476,
      "Ġveil": 8477,
      "Ġplotted": 8478,
      "Ġdeceived": 8479,
      "irthday": 8480,
      "600": 8481,
      "cons": 8482,
      "Ġposit": 8483,
      "lid": 8484,
      "à¤·à¤Ĺ": 8485,
      "Ġthro": 8486,
      "Ġdoors": 8487,
      "ĠSun": 8488,
      "ĠSovere": 8489,
      "ĠTasks": 8490,
      "Ġrows": 8491,
      "Ġtransfer": 8492,
      "à¥Ĥà¤Ĥ?": 8493,
      "Ġappreci": 8494,
      "Ġowner": 8495,
      "à¤°à¥Ľà¤¨": 8496,
      "Ġspeaks": 8497,
      "Ġlightning": 8498,
      "Ġdistributed": 8499,
      "africa": 8500,
      "Ġadmonished": 8501,
      "Ġintends": 8502,
      "Ġappeared": 8503,
      "Perhaps": 8504,
      "Continue": 8505,
      "à¤¸à¤ľà¤¦": 8506,
      "zzle": 8507,
      "%.": 8508,
      "?-": 8509,
      "Blessed": 8510,
      "Her": 8511,
      "MP": 8512,
      "UE": 8513,
      "]?": 8514,
      "page": 8515,
      "Ġà¤īà¤¹": 8516,
      "Ġbin": 8517,
      "stood": 8518,
      "Ġrelease": 8519,
      "Ġnotify": 8520,
      "ĠHon": 8521,
      "Ġlofty": 8522,
      "ĠLaw": 8523,
      "ĠSave": 8524,
      "ĠWere": 8525,
      "Ġsteal": 8526,
      "ĠBoston": 8527,
      "aka": 8528,
      "Ġatom": 8529,
      "Ġhom": 8530,
      "Ġloved": 8531,
      "Ġarr": 8532,
      "Ġcamel": 8533,
      "Stri": 8534,
      "Ġslander": 8535,
      "Ġrestrain": 8536,
      "alendars": 8537,
      "mbers": 8538,
      "Ġà¤ªà¤¥à¤°": 8539,
      "Ġrelate": 8540,
      "Ġfeeling": 8541,
      "Atl": 8542,
      "Level": 8543,
      "www": 8544,
      "Ġshameful": 8545,
      "Su": 8546,
      "Sent": 8547,
      "iate": 8548,
      "trees": 8549,
      "while": 8550,
      "Ġà¤¦à¤µ": 8551,
      "Ġends": 8552,
      "Ġrepl": 8553,
      "à¤ħà¤¹à¤²": 8554,
      "ĠMet": 8555,
      "Ġà¤¶à¤¯": 8556,
      "ĠPell": 8557,
      "Ġnearest": 8558,
      "Ġà¤¤à¤ķà¤¬": 8559,
      "Ġunexpected": 8560,
      "ĠEnter": 8561,
      "Ġadul": 8562,
      "Ġbookmark": 8563,
      "Ġsurpr": 8564,
      "Ġperformed": 8565,
      "Subversion": 8566,
      "Ġannounce": 8567,
      "Ġabsolute": 8568,
      "Ġencompassed": 8569,
      "Ġpreceded": 8570,
      "ĠMakkah": 8571,
      "Ġsuccour": 8572,
      "Ġparticipants": 8573,
      "ĠSupreme": 8574,
      "Dest": 8575,
      "Lot": 8576,
      "ua": 8577,
      "Ġbull": 8578,
      "ork": 8579,
      "host": 8580,
      "Ġà¤Ĩà¤¡": 8581,
      "Ġà¥§": 8582,
      "Ġà¤ªà¤°à¤®": 8583,
      "Ġren": 8584,
      "Ġhung": 8585,
      "nts": 8586,
      "ĠEnd": 8587,
      "Ġendowed": 8588,
      "Ġ2006": 8589,
      "Ġlivelihood": 8590,
      "Ġcommitting": 8591,
      "ĠFiraun": 8592,
      "Ġmockery": 8593,
      "Ġexecute": 8594,
      "Ġdevotion": 8595,
      "ĠInternet": 8596,
      "Ġencrypted": 8597,
      "ĠBrowser": 8598,
      "130": 8599,
      "Australia": 8600,
      "cam": 8601,
      "ials": 8602,
      "rs": 8603,
      "à¥ģ-": 8604,
      "stone": 8605,
      "Ġeast": 8606,
      "urance": 8607,
      "ĠMin": 8608,
      "redly": 8609,
      "Ġrights": 8610,
      "Ġà¤ħà¤µà¤Ĺà¤¤": 8611,
      "Ġattempt": 8612,
      "Ġfavoured": 8613,
      "ivate": 8614,
      "Ġawful": 8615,
      "apanese": 8616,
      "vailable": 8617,
      "Ġinspiration": 8618,
      "Ġbodies": 8619,
      "Col": 8620,
      "Fight": 8621,
      "Game": 8622,
      "Ġwest": 8623,
      "orrow": 8624,
      "itous": 8625,
      "Ġcaught": 8626,
      "rian": 8627,
      "Ġlatter": 8628,
      "ĠSO": 8629,
      "Ġmerely": 8630,
      "Ġmembers": 8631,
      "allery": 8632,
      "ĠClick": 8633,
      "quire": 8634,
      "ĠEach": 8635,
      "à¤¢à¤¨": 8636,
      "soft": 8637,
      "ĠUID": 8638,
      "ĠVer": 8639,
      "Ġcomprehend": 8640,
      "à¤¸à¤¬à¤µà¤°": 8641,
      "Ġinterface": 8642,
      "Ġdistribution": 8643,
      "Ġtransgressing": 8644,
      "Ġlaws": 8645,
      "Ġsearching": 8646,
      "Ġesc": 8647,
      "Ġconfigure": 8648,
      "ĠGuidance": 8649,
      "egal": 8650,
      "ĠControl": 8651,
      "Ġinsolent": 8652,
      "Ġmotion": 8653,
      "gger": 8654,
      "has": 8655,
      "orage": 8656,
      "Ġcourt": 8657,
      "aration": 8658,
      "Ġincoming": 8659,
      "Ġforces": 8660,
      "Ġrent": 8661,
      "à¤Īà¤¦": 8662,
      "cends": 8663,
      "urph": 8664,
      "Ġkne": 8665,
      "Ġvast": 8666,
      "à¤¹à¤®à¤¦": 8667,
      "these": 8668,
      "Ġperpet": 8669,
      "Ġprevail": 8670,
      "cret": 8671,
      "meeting": 8672,
      "aternal": 8673,
      "Ġinvited": 8674,
      "ĠInj": 8675,
      "lignment": 8676,
      "Ġlightened": 8677,
      "Excuse": 8678,
      "suredly": 8679,
      "Ġcharged": 8680,
      "Ġextension": 8681,
      "Ġencompasses": 8682,
      "Ġbuffer": 8683,
      "MA": 8684,
      "SH": 8685,
      "bser": 8686,
      "iny": 8687,
      "reen": 8688,
      "omen": 8689,
      "à¤Ĩà¤¬": 8690,
      "ĠGet": 8691,
      "Ġdislike": 8692,
      "unch": 8693,
      "ĠUS": 8694,
      "Ġà¤¸à¤ļà¤®": 8695,
      "Ġscale": 8696,
      "Ġattract": 8697,
      "Ġdevout": 8698,
      "Ġjudged": 8699,
      "Ġtreasure": 8700,
      "Ġreported": 8701,
      "ĠBlaze": 8702,
      "Ġwalking": 8703,
      "Ġincur": 8704,
      "ĠEnv": 8705,
      "Ġenvironment": 8706,
      ":)": 8707,
      "Har": 8708,
      "cest": 8709,
      "son": 8710,
      "à¤¤à¤ĺ": 8711,
      "à¥ĩà¤Ĥ;": 8712,
      "hal": 8713,
      "Ġcave": 8714,
      "vels": 8715,
      "ĠWhich": 8716,
      "asy": 8717,
      "ĠSC": 8718,
      "ĠSul": 8719,
      "ĠSnow": 8720,
      "Ġà¤ĺà¤¸": 8721,
      "quainted": 8722,
      "Ġà¤¬à¤¦à¤¤à¤°": 8723,
      "à¤¼à¥Ģ-": 8724,
      "Ġrate": 8725,
      "Ġà¤¬à¤°à¤«": 8726,
      "Ġdeser": 8727,
      "Ġcamels": 8728,
      "Ġopening": 8729,
      "Ġflu": 8730,
      "Ġpoet": 8731,
      "Ġinstance": 8732,
      "Ġmisled": 8733,
      "ĠExp": 8734,
      "Ġ51": 8735,
      "Ġsmoke": 8736,
      "Wherefore": 8737,
      "Ġdeclared": 8738,
      "Ġthirst": 8739,
      "iversary": 8740,
      "Ġyesterday": 8741,
      "LES": 8742,
      "RA": 8743,
      "Writing": 8744,
      "sl": 8745,
      "ui": 8746,
      "Ġà¤ķà¤ª": 8747,
      "à¤¨à¤®à¤¸": 8748,
      "Ġtasted": 8749,
      "held": 8750,
      "Ġbought": 8751,
      "Ġcatch": 8752,
      "Ġà¤°à¤ªà¤Ł": 8753,
      "atures": 8754,
      "Ġforced": 8755,
      "ĠSufficient": 8756,
      "Ġsuf": 8757,
      "Ġdenial": 8758,
      "Ġrained": 8759,
      "active": 8760,
      "Ġponder": 8761,
      "ildir": 8762,
      "Ġtreacher": 8763,
      "Ġignore": 8764,
      "GHT": 8765,
      "Minimum": 8766,
      "IBM": 8767,
      "Ġopinion": 8768,
      "Card": 8769,
      "à¤®à¤¹à¤¤": 8770,
      "Ġoil": 8771,
      "Ġmate": 8772,
      "lend": 8773,
      "Ġgn": 8774,
      "Ġeager": 8775,
      "ules": 8776,
      "unific": 8777,
      "Ġà¤¸à¤¬à¤¨": 8778,
      "ĠRSA": 8779,
      "ĠUSA": 8780,
      "pless": 8781,
      "Whenever": 8782,
      "Ġboot": 8783,
      "Ġrequires": 8784,
      "Ġtrustworthy": 8785,
      "Ġfailure": 8786,
      "Ġgeneric": 8787,
      "Ġelements": 8788,
      "Ġviolent": 8789,
      "Ġdifficulty": 8790,
      "Ġaccompl": 8791,
      "ĠDetails": 8792,
      "Ġweeks": 8793,
      "Ġconjecture": 8794,
      "urkish": 8795,
      "DI": 8796,
      "Each": 8797,
      "Gadu": 8798,
      "Mary": 8799,
      "Part": 8800,
      "false": 8801,
      "oo": 8802,
      "sk": 8803,
      "value": 8804,
      "wood": 8805,
      "Ġinlist": 8806,
      "à¤«à¤¨": 8807,
      "Ġlanguages": 8808,
      "ĠPunishment": 8809,
      "Ġdisappe": 8810,
      "istion": 8811,
      "Ġunicode": 8812,
      "Ġoverwrite": 8813,
      "Ġà¤¬à¤°à¤ª": 8814,
      "Ġà¤īà¤ªà¤¦": 8815,
      "licy": 8816,
      "Ġpassing": 8817,
      "Ġsym": 8818,
      "Ġmagn": 8819,
      "Ġmission": 8820,
      "riginal": 8821,
      "Ġhumiliation": 8822,
      "phaistion": 8823,
      "ĠEuropean": 8824,
      "Cent": 8825,
      "Saving": 8826,
      "damn": 8827,
      "rodu": 8828,
      "zone": 8829,
      "Ġtro": 8830,
      "Ġà¤¹à¤«": 8831,
      "Ġfix": 8832,
      "atin": 8833,
      "Ġà¤Ĩà¤°à¤®": 8834,
      "lias": 8835,
      "Ġà¤Ńà¤Łà¤ķà¤¤": 8836,
      "Ġeating": 8837,
      "Ġà¥Ļà¤²": 8838,
      "ersion": 8839,
      "Ġshake": 8840,
      "Ġknowingly": 8841,
      "ĠCSV": 8842,
      "ĠObject": 8843,
      "ĠFav": 8844,
      "ĠFolders": 8845,
      "Height": 8846,
      "Ġà¤¬à¤°à¤Ĺ": 8847,
      "à¤Łà¤°à¤«": 8848,
      "Ġwrongfully": 8849,
      "via": 8850,
      "ĠForbearing": 8851,
      "Ġpolythe": 8852,
      "à¤ıà¤¸à¤ıà¤¸": 8853,
      "Ġhonest": 8854,
      "Ġstopped": 8855,
      "Ġmarket": 8856,
      "ITY": 8857,
      "ĠWords": 8858,
      "Ġcovering": 8859,
      "ĠCompanions": 8860,
      "Ġsuffered": 8861,
      "Bug": 8862,
      "Dep": 8863,
      "Directory": 8864,
      "Position": 8865,
      "__": 8866,
      "gon": 8867,
      "mess": 8868,
      "wed": 8869,
      "à¥ĩ:": 8870,
      "à¤°à¤®à¤¤": 8871,
      "Ġaverted": 8872,
      "Ġà¤¸à¤°à¤¤": 8873,
      "Ġwat": 8874,
      "Ġboss": 8875,
      "à¤¡à¤¸": 8876,
      "ĠME": 8877,
      "ĠMaster": 8878,
      "ĠLike": 8879,
      "Ġancest": 8880,
      "ĠDoug": 8881,
      "okes": 8882,
      "Ġamb": 8883,
      "Ġà¤¬à¤¦à¤²à¤¤": 8884,
      "Ġremains": 8885,
      "achine": 8886,
      "Ġfearful": 8887,
      "à¤ĩà¤¨à¤¸": 8888,
      "à¤ĩà¤¨à¤²": 8889,
      "ciples": 8890,
      "Ġordin": 8891,
      "ĠStreet": 8892,
      "ialog": 8893,
      "Ġà¤ªà¤²à¤Łà¤¤": 8894,
      "aiman": 8895,
      "Ġwrites": 8896,
      "Ġusername": 8897,
      "Ġdocuments": 8898,
      "à¤ħà¤«à¤¸": 8899,
      "Ġfeeding": 8900,
      "Musli": 8901,
      "Ġspoils": 8902,
      "Ġhighest": 8903,
      "Permissions": 8904,
      "Ġadorned": 8905,
      "Ġinlistbox": 8906,
      "Author": 8907,
      "Host": 8908,
      "Met": 8909,
      "Sn": 8910,
      "pace": 8911,
      "sir": 8912,
      "woman": 8913,
      "Ġà¤ķà¤¤": 8914,
      "Ġwond": 8915,
      "Ġoli": 8916,
      "Ġmass": 8917,
      "inging": 8918,
      "Ġà¤Ĩà¤ĵà¤Ĺ": 8919,
      "aning": 8920,
      "à¥Ģà¤Ĥ?\"": 8921,
      "rip": 8922,
      "Ġhint": 8923,
      "nte": 8924,
      "à¤¼à¤¾.": 8925,
      "Ġpearls": 8926,
      "resent": 8927,
      "Ġcanst": 8928,
      "ĠNumber": 8929,
      "Ġplenty": 8930,
      "Ġsentence": 8931,
      "Ġoverwhe": 8932,
      "Ġshouldn": 8933,
      "Ġloose": 8934,
      "Ġà¥ŀà¤¤": 8935,
      "Ġassum": 8936,
      "Remote": 8937,
      "inner": 8938,
      "à¤ĳà¤«à¤²": 8939,
      "Ġgreed": 8940,
      "should": 8941,
      "Ġscriptures": 8942,
      "LAY": 8943,
      "Ġà¤®à¤¶à¤µà¤°": 8944,
      "ĠMajesty": 8945,
      "Ġfigure": 8946,
      "Ġimmort": 8947,
      "ersonal": 8948,
      "49": 8949,
      "Drag": 8950,
      "chan": 8951,
      "reation": 8952,
      "Ġà¤®à¥ĺ": 8953,
      "Ġball": 8954,
      "Ġborder": 8955,
      "Ġcoin": 8956,
      "verty": 8957,
      "Ġmeas": 8958,
      "Ġshared": 8959,
      "Ġdisag": 8960,
      "Ġexult": 8961,
      "Ġcontend": 8962,
      "forever": 8963,
      "ĠAndy": 8964,
      "Ġdeserve": 8965,
      "à¤Łà¤°Name": 8966,
      "cient": 8967,
      "Ġà¤Ńà¤°à¤ª": 8968,
      "à¤ķà¤¹à¤¨": 8969,
      "Ġshell": 8970,
      "Ġentertain": 8971,
      "à¤ħà¤¤à¤ıà¤µ": 8972,
      "Ġclar": 8973,
      "apse": 8974,
      "orses": 8975,
      "However": 8976,
      "command": 8977,
      "Ġà¤¸à¤«à¤°": 8978,
      "Ġsmo": 8979,
      "ĠBehold": 8980,
      "Normal": 8981,
      "province": 8982,
      "General": 8983,
      "Ġcontaining": 8984,
      "ĠClass": 8985,
      "Ġrevive": 8986,
      "Ġimagine": 8987,
      "Ġconversation": 8988,
      "Ġrejoicing": 8989,
      "Ġlatest": 8990,
      "Ġdisdain": 8991,
      "italyprovince": 8992,
      "Fear": 8993,
      "MY": 8994,
      "Width": 8995,
      "hor": 8996,
      "sub": 8997,
      "à¤Ĥ)": 8998,
      "Ġà¤¹à¤ł": 8999,
      "Ġpilgrimage": 9000,
      "Ġhang": 9001,
      "Ġà¤ıà¥Ļà¤¤": 9002,
      "à¤ħà¤Ĺ": 9003,
      "à¤ħà¤ªà¤°": 9004,
      "à¤ĩà¤®à¤¨": 9005,
      "à¤īà¤Łà¤²": 9006,
      "ĠCH": 9007,
      "à¤¾),": 9008,
      "resp": 9009,
      "osques": 9010,
      "ĠEmail": 9011,
      "à¥ļà¤²": 9012,
      "Ġseeks": 9013,
      "iveness": 9014,
      "Ġletters": 9015,
      "Ġhardened": 9016,
      "type": 9017,
      "Ġwitnessed": 9018,
      "Ġpoverty": 9019,
      "Ġbelongeth": 9020,
      "Reload": 9021,
      "Ġdiff": 9022,
      "Ġà¤īà¤ļà¤ķ": 9023,
      "Ġmodified": 9024,
      "Ġovertaken": 9025,
      "Ġcarrying": 9026,
      "Ġconsequences": 9027,
      "Ġrescued": 9028,
      ")],": 9029,
      ".%": 9030,
      "Icon": 9031,
      "IGHT": 9032,
      "joy": 9033,
      "link": 9034,
      "vol": 9035,
      "à¤²à¤Ń": 9036,
      "à¤¬à¥Ŀ": 9037,
      "à¤ıà¤Ł": 9038,
      "Ġmol": 9039,
      "à¤¼!": 9040,
      "Ġparadise": 9041,
      "Ġge": 9042,
      "Ġreleas": 9043,
      "à¤ĩà¤ı": 9044,
      "Ġsovere": 9045,
      "Ġaltogether": 9046,
      "Ġoutst": 9047,
      "Ġà¤¸à¤¹à¤¨": 9048,
      "Ġreciting": 9049,
      "Ġaddition": 9050,
      "Ġà¤ħà¤¸à¤¹": 9051,
      "Ġrests": 9052,
      "Ġpleasing": 9053,
      "Alamin": 9054,
      "Ġchecked": 9055,
      "print": 9056,
      "gnore": 9057,
      "Ġsilk": 9058,
      "Ġcorrectly": 9059,
      "Encrypt": 9060,
      "ĠFrank": 9061,
      "Ġmusic": 9062,
      "Atlantic": 9063,
      "DAV": 9064,
      "Id": 9065,
      "Rather": 9066,
      "Ver": 9067,
      "bing": 9068,
      "tree": 9069,
      "},": 9070,
      "incent": 9071,
      "Ġpair": 9072,
      "à¤¶à¤¯": 9073,
      "lets": 9074,
      "Ġgains": 9075,
      "Ġà¤°à¤¹à¤¸": 9076,
      "ĠWhite": 9077,
      "à¤ĩà¤¦": 9078,
      "Ġdoctor": 9079,
      "à¤Ŀà¤²": 9080,
      "Ġdeleting": 9081,
      "Ġà¤¤à¤°à¤ľ": 9082,
      "ĠPra": 9083,
      "ĠDist": 9084,
      "ĠDefault": 9085,
      "Ġwhence": 9086,
      "Ġdiss": 9087,
      "ĠFace": 9088,
      "Ġguile": 9089,
      "ileth": 9090,
      "Ġresort": 9091,
      "cip": 9092,
      "Ġtech": 9093,
      "ropri": 9094,
      "ĠTrumpet": 9095,
      "Three": 9096,
      "Ġsymbol": 9097,
      "ERE": 9098,
      "ointment": 9099,
      "Ġinclude": 9100,
      "ĠShort": 9101,
      "Ġengine": 9102,
      "LAU": 9103,
      "Ġneglected": 9104,
      "Ġshadow": 9105,
      "Ġexperience": 9106,
      "Ġwarranty": 9107,
      "'?": 9108,
      "Greek": 9109,
      "Paradise": 9110,
      "Torah": 9111,
      "plif": 9112,
      "rise": 9113,
      "yper": 9114,
      "à¥ĩà¤Ĥ\"": 9115,
      "Ġà¤ħà¤Łà¤²": 9116,
      "Ġmer": 9117,
      "Ġmixed": 9118,
      "Ġrevert": 9119,
      "owing": 9120,
      "ĠIT": 9121,
      "riah": 9122,
      "amAss": 9123,
      "ĠMad": 9124,
      "ĠGree": 9125,
      "Ġdeleg": 9126,
      "Ġcompl": 9127,
      "Ġdisaster": 9128,
      "osite": 9129,
      "Ġvia": 9130,
      "Ġdisbeliever": 9131,
      "nex": 9132,
      "à¤µà¤²à¤ªà¤°": 9133,
      "Ġqueen": 9134,
      "Ġprovisions": 9135,
      "Ġflame": 9136,
      "Ġpurcha": 9137,
      "ĠSend": 9138,
      "afghanistan": 9139,
      "angels": 9140,
      "GHING": 9141,
      "ĠRecord": 9142,
      "Ġintended": 9143,
      "Ġquarre": 9144,
      "Ġpersevere": 9145,
      "KCharselect": 9146,
      "amAssassin": 9147,
      "Coll": 9148,
      "NAME": 9149,
      "Write": 9150,
      "farer": 9151,
      "à¤²à¤Ĺà¤¤": 9152,
      "Ġbuddy": 9153,
      "orters": 9154,
      "esa": 9155,
      "Ġmaid": 9156,
      "hole": 9157,
      "à¤ļà¤²à¤¤": 9158,
      "Ġham": 9159,
      "Ġhallow": 9160,
      "ĠMa": 9161,
      "Ġsand": 9162,
      "ĠPo": 9163,
      "Ġalleg": 9164,
      "ĠCount": 9165,
      "user": 9166,
      "ĠFUCK": 9167,
      "Ġà¤¸à¤¹à¤®à¤¤": 9168,
      "Ġrat": 9169,
      "Ġsomewhere": 9170,
      "Ġà¤ĳà¤¬": 9171,
      "Ġtries": 9172,
      "comp": 9173,
      "Ġdirectories": 9174,
      "Ġextent": 9175,
      "Ġmeanings": 9176,
      "ĠProgram": 9177,
      "Ġfilters": 9178,
      "Ġcontinued": 9179,
      "Ġarrogance": 9180,
      "Ġlegal": 9181,
      "HTTP": 9182,
      "Ġbeginning": 9183,
      "Ġbreathed": 9184,
      "Ã©lie": 9185,
      "Musa": 9186,
      "Ġrelations": 9187,
      "ĠSystem": 9188,
      "Ġofficial": 9189,
      "Ġinvestig": 9190,
      "Rotate": 9191,
      "DB": 9192,
      "Diff": 9193,
      "ILL": 9194,
      "Test": 9195,
      "`%": 9196,
      "make": 9197,
      "à¤ķà¤µ": 9198,
      "Ġwaves": 9199,
      "à¤ıà¤¨à¤ķ": 9200,
      "Ġà¥¨": 9201,
      "à¤¡à¤¬": 9202,
      "ĠArabs": 9203,
      "storm": 9204,
      "Ġsuck": 9205,
      "ĠPal": 9206,
      "ĠField": 9207,
      "ĠFran": 9208,
      "Ġsperm": 9209,
[...]
